{
  "version": "1.0",
  "truncation": null,
  "padding": null,
  "added_tokens": [
    {
      "id": 0,
      "content": "<pad>",
      "single_word": false,
      "lstrip": false,
      "rstrip": false,
      "normalized": false,
      "special": true
    },
    {
      "id": 1,
      "content": "<bos>",
      "single_word": false,
      "lstrip": false,
      "rstrip": false,
      "normalized": false,
      "special": true
    },
    {
      "id": 2,
      "content": "<eos>",
      "single_word": false,
      "lstrip": false,
      "rstrip": false,
      "normalized": false,
      "special": true
    },
    {
      "id": 3,
      "content": "<unk>",
      "single_word": false,
      "lstrip": false,
      "rstrip": false,
      "normalized": false,
      "special": true
    }
  ],
  "normalizer": null,
  "pre_tokenizer": {
    "type": "ByteLevel",
    "add_prefix_space": false,
    "trim_offsets": true,
    "use_regex": true
  },
  "post_processor": {
    "type": "TemplateProcessing",
    "single": [
      {
        "SpecialToken": {
          "id": "<bos>",
          "type_id": 0
        }
      },
      {
        "Sequence": {
          "id": "A",
          "type_id": 0
        }
      },
      {
        "SpecialToken": {
          "id": "<eos>",
          "type_id": 0
        }
      }
    ],
    "pair": [
      {
        "Sequence": {
          "id": "A",
          "type_id": 0
        }
      },
      {
        "Sequence": {
          "id": "B",
          "type_id": 1
        }
      }
    ],
    "special_tokens": {
      "<bos>": {
        "id": "<bos>",
        "ids": [
          1
        ],
        "tokens": [
          "<bos>"
        ]
      },
      "<eos>": {
        "id": "<eos>",
        "ids": [
          2
        ],
        "tokens": [
          "<eos>"
        ]
      }
    }
  },
  "decoder": {
    "type": "ByteLevel",
    "add_prefix_space": true,
    "trim_offsets": true,
    "use_regex": true
  },
  "model": {
    "type": "BPE",
    "dropout": null,
    "unk_token": "<unk>",
    "continuing_subword_prefix": null,
    "end_of_word_suffix": null,
    "fuse_unk": false,
    "byte_fallback": false,
    "ignore_merges": false,
    "vocab": {
      "<pad>": 0,
      "<bos>": 1,
      "<eos>": 2,
      "<unk>": 3,
      "!": 4,
      "\"": 5,
      "#": 6,
      "$": 7,
      "%": 8,
      "&": 9,
      "'": 10,
      "(": 11,
      ")": 12,
      "*": 13,
      "+": 14,
      ",": 15,
      "-": 16,
      ".": 17,
      "/": 18,
      "0": 19,
      "1": 20,
      "2": 21,
      "3": 22,
      "4": 23,
      "5": 24,
      "6": 25,
      "7": 26,
      "8": 27,
      "9": 28,
      ":": 29,
      ";": 30,
      "<": 31,
      "=": 32,
      ">": 33,
      "?": 34,
      "@": 35,
      "A": 36,
      "B": 37,
      "C": 38,
      "D": 39,
      "E": 40,
      "F": 41,
      "G": 42,
      "H": 43,
      "I": 44,
      "J": 45,
      "K": 46,
      "L": 47,
      "M": 48,
      "N": 49,
      "O": 50,
      "P": 51,
      "Q": 52,
      "R": 53,
      "S": 54,
      "T": 55,
      "U": 56,
      "V": 57,
      "W": 58,
      "X": 59,
      "Y": 60,
      "Z": 61,
      "[": 62,
      "\\": 63,
      "]": 64,
      "^": 65,
      "_": 66,
      "`": 67,
      "a": 68,
      "b": 69,
      "c": 70,
      "d": 71,
      "e": 72,
      "f": 73,
      "g": 74,
      "h": 75,
      "i": 76,
      "j": 77,
      "k": 78,
      "l": 79,
      "m": 80,
      "n": 81,
      "o": 82,
      "p": 83,
      "q": 84,
      "r": 85,
      "s": 86,
      "t": 87,
      "u": 88,
      "v": 89,
      "w": 90,
      "x": 91,
      "y": 92,
      "z": 93,
      "|": 94,
      "}": 95,
      "~": 96,
      "¡": 97,
      "¢": 98,
      "£": 99,
      "¤": 100,
      "¥": 101,
      "¦": 102,
      "§": 103,
      "¨": 104,
      "©": 105,
      "ª": 106,
      "«": 107,
      "¬": 108,
      "®": 109,
      "¯": 110,
      "°": 111,
      "±": 112,
      "²": 113,
      "³": 114,
      "´": 115,
      "µ": 116,
      "¶": 117,
      "·": 118,
      "¸": 119,
      "¹": 120,
      "º": 121,
      "»": 122,
      "¼": 123,
      "½": 124,
      "¾": 125,
      "¿": 126,
      "Â": 127,
      "Ã": 128,
      "Ä": 129,
      "Å": 130,
      "Æ": 131,
      "Ç": 132,
      "È": 133,
      "É": 134,
      "Ê": 135,
      "Ë": 136,
      "Ì": 137,
      "Í": 138,
      "Î": 139,
      "Ï": 140,
      "Ð": 141,
      "Ñ": 142,
      "Ò": 143,
      "Ó": 144,
      "Ô": 145,
      "Õ": 146,
      "Ö": 147,
      "×": 148,
      "Ø": 149,
      "Ù": 150,
      "Ú": 151,
      "Û": 152,
      "Ý": 153,
      "à": 154,
      "á": 155,
      "â": 156,
      "ã": 157,
      "ä": 158,
      "å": 159,
      "æ": 160,
      "ç": 161,
      "è": 162,
      "é": 163,
      "ê": 164,
      "ë": 165,
      "ì": 166,
      "í": 167,
      "ï": 168,
      "ð": 169,
      "Ċ": 170,
      "Ġ": 171,
      "Ģ": 172,
      "ģ": 173,
      "Ĥ": 174,
      "ĥ": 175,
      "Ħ": 176,
      "ħ": 177,
      "Ĩ": 178,
      "ĩ": 179,
      "Ī": 180,
      "ī": 181,
      "Ĭ": 182,
      "ĭ": 183,
      "Į": 184,
      "į": 185,
      "İ": 186,
      "ı": 187,
      "Ĳ": 188,
      "ĳ": 189,
      "Ĵ": 190,
      "ĵ": 191,
      "Ķ": 192,
      "ķ": 193,
      "ĸ": 194,
      "Ĺ": 195,
      "ĺ": 196,
      "Ļ": 197,
      "ļ": 198,
      "Ľ": 199,
      "ľ": 200,
      "Ŀ": 201,
      "ŀ": 202,
      "Ł": 203,
      "ł": 204,
      "Ń": 205,
      "Ġt": 206,
      "Ġa": 207,
      "he": 208,
      "in": 209,
      "re": 210,
      "Ġthe": 211,
      "on": 212,
      "er": 213,
      "Ġo": 214,
      "at": 215,
      "Ġs": 216,
      "en": 217,
      "Ġc": 218,
      "Ġw": 219,
      "es": 220,
      "is": 221,
      "nd": 222,
      "it": 223,
      "or": 224,
      "Ġp": 225,
      "al": 226,
      "ed": 227,
      "Ġb": 228,
      "Ġof": 229,
      "an": 230,
      "Ġf": 231,
      "ing": 232,
      "Ġin": 233,
      "ar": 234,
      "ou": 235,
      "Ġm": 236,
      "Ġand": 237,
      "Ġto": 238,
      "ic": 239,
      "Ġd": 240,
      "ion": 241,
      "le": 242,
      "ro": 243,
      "as": 244,
      "Ġh": 245,
      "Ġth": 246,
      "ent": 247,
      "ct": 248,
      "Ġe": 249,
      "il": 250,
      "Ġre": 251,
      "om": 252,
      "ve": 253,
      "Ġl": 254,
      "st": 255,
      "Ġn": 256,
      "ly": 257,
      "Ġbe": 258,
      "âĢ": 259,
      "Ġis": 260,
      "ĠT": 261,
      "se": 262,
      "ol": 263,
      "Ġg": 264,
      "ation": 265,
      "im": 266,
      "id": 267,
      "et": 268,
      "ut": 269,
      "ce": 270,
      "ot": 271,
      "ur": 272,
      "ra": 273,
      "ow": 274,
      "ch": 275,
      "ĠA": 276,
      "Ġfor": 277,
      "ig": 278,
      "Ġthat": 279,
      "ĠS": 280,
      "Ġon": 281,
      "Ġu": 282,
      "Ġst": 283,
      "ver": 284,
      "ĠC": 285,
      "ĠI": 286,
      "ir": 287,
      "Ġy": 288,
      "ul": 289,
      "ay": 290,
      "am": 291,
      "Ġas": 292,
      "el": 293,
      "ith": 294,
      "ad": 295,
      "her": 296,
      "Ġpro": 297,
      "Ġcon": 298,
      "Ġare": 299,
      "Ġan": 300,
      "Ġwith": 301,
      "Ġwh": 302,
      "if": 303,
      "Ġit": 304,
      "Ġor": 305,
      "Ġal": 306,
      "ter": 307,
      "Ġyou": 308,
      "ĠM": 309,
      "od": 310,
      "Ġ(": 311,
      "ĠThe": 312,
      "ment": 313,
      "Ġ1": 314,
      "ge": 315,
      "ĠP": 316,
      "th": 317,
      "ist": 318,
      "op": 319,
      "ate": 320,
      "ers": 321,
      "Ġde": 322,
      "ies": 323,
      "Ġhe": 324,
      "ill": 325,
      "ab": 326,
      "ĠB": 327,
      "us": 328,
      "ess": 329,
      "Ġex": 330,
      "Ġwe": 331,
      "ect": 332,
      "ore": 333,
      "Ġsu": 334,
      "Ġcom": 335,
      "ity": 336,
      "âĢĻ": 337,
      "est": 338,
      "res": 339,
      "Ġha": 340,
      "ive": 341,
      "ĠH": 342,
      "ld": 343,
      "rom": 344,
      "um": 345,
      "ac": 346,
      "os": 347,
      "Ġv": 348,
      "Ġby": 349,
      "ke": 350,
      "em": 351,
      "iv": 352,
      "ant": 353,
      "qu": 354,
      "ĠW": 355,
      "ain": 356,
      "Ġat": 357,
      "nt": 358,
      "Ġwas": 359,
      "pp": 360,
      "ĠD": 361,
      "igh": 362,
      "ĠE": 363,
      "ud": 364,
      "Ġfrom": 365,
      "and": 366,
      "oc": 367,
      "Ġch": 368,
      "Ġcan": 369,
      "Ġr": 370,
      "ĠR": 371,
      "ort": 372,
      "Ġne": 373,
      "ĠF": 374,
      "Ġse": 375,
      "ial": 376,
      "Ġ2": 377,
      "ure": 378,
      "Ġnot": 379,
      "ĠâĢ": 380,
      "un": 381,
      "ĠN": 382,
      "art": 383,
      "Ġle": 384,
      "ical": 385,
      "ĠG": 386,
      "Ġhave": 387,
      "ri": 388,
      "ĠL": 389,
      "og": 390,
      "Ġsh": 391,
      "Ġen": 392,
      "Ġthis": 393,
      "Ġsp": 394,
      "00": 395,
      "ight": 396,
      "pt": 397,
      "Ġab": 398,
      "rou": 399,
      "ich": 400,
      "red": 401,
      "all": 402,
      "Ġwor": 403,
      "ould": 404,
      "ther": 405,
      "gh": 406,
      "The": 407,
      "ome": 408,
      "ost": 409,
      "ions": 410,
      "our": 411,
      "ated": 412,
      "du": 413,
      "Ġim": 414,
      "out": 415,
      "per": 416,
      "ine": 417,
      "Ġus": 418,
      "ard": 419,
      "ag": 420,
      "Ġpl": 421,
      "Ġtheir": 422,
      "ell": 423,
      "ĠO": 424,
      "ide": 425,
      "ff": 426,
      "act": 427,
      "Ġint": 428,
      "ans": 429,
      "ear": 430,
      "ast": 431,
      "pl": 432,
      "ĠJ": 433,
      "age": 434,
      "ust": 435,
      "Ġwhich": 436,
      "Ġk": 437,
      "ak": 438,
      "ous": 439,
      "Ġwhe": 440,
      "Ġthey": 441,
      "ec": 442,
      "ĠU": 443,
      "Ġall": 444,
      "iz": 445,
      "ĠIn": 446,
      "Ġcont": 447,
      "ood": 448,
      "Ġyour": 449,
      "ib": 450,
      "Ġad": 451,
      "ia": 452,
      "ult": 453,
      "Ġinc": 454,
      "Ġwill": 455,
      "ap": 456,
      "end": 457,
      "cc": 458,
      "Ġdis": 459,
      "ru": 460,
      "âĢĿ": 461,
      "ong": 462,
      "Ġmore": 463,
      "Ġcomp": 464,
      "ew": 465,
      "Ġhas": 466,
      "ip": 467,
      "vel": 468,
      "ations": 469,
      "Ġres": 470,
      "ere": 471,
      "ary": 472,
      "orm": 473,
      "so": 474,
      "Ġdo": 475,
      "ater": 476,
      "Ġwere": 477,
      "ĠTh": 478,
      "Ġother": 479,
      "Ġcl": 480,
      "ild": 481,
      "Ġbut": 482,
      "ence": 483,
      "Ġman": 484,
      "ual": 485,
      "are": 486,
      "able": 487,
      "ks": 488,
      "ry": 489,
      "'s": 490,
      "ĠâĢľ": 491,
      "Ġone": 492,
      "Ġper": 493,
      "ance": 494,
      "ind": 495,
      "ep": 496,
      "ach": 497,
      "Ġ19": 498,
      "Ġme": 499,
      "ents": 500,
      "Ġalso": 501,
      "Ġimp": 502,
      "Ġte": 503,
      "ose": 504,
      "reat": 505,
      "ass": 506,
      "ake": 507,
      "ign": 508,
      "ress": 509,
      "ase": 510,
      "Ġj": 511,
      "au": 512,
      "av": 513,
      "ition": 514,
      "ber": 515,
      "Ġso": 516,
      "ice": 517,
      "Ġar": 518,
      "Ġun": 519,
      "ction": 520,
      "Ġout": 521,
      "Ġpart": 522,
      "very": 523,
      "Ġapp": 524,
      "ime": 525,
      "ish": 526,
      "Ġabout": 527,
      "ord": 528,
      "Ġhis": 529,
      "ory": 530,
      "Ġev": 531,
      "one": 532,
      "Ġwho": 533,
      "ame": 534,
      "ok": 535,
      "ens": 536,
      "ace": 537,
      "ount": 538,
      "ĠSt": 539,
      "Ġstud": 540,
      "ire": 541,
      ").": 542,
      "ub": 543,
      "Ġinf": 544,
      "ack": 545,
      "Ġ\"": 546,
      "Ġpe": 547,
      "ĠK": 548,
      "Ġsc": 549,
      "Ġthem": 550,
      "ue": 551,
      "Ġsy": 552,
      "ite": 553,
      "Ġcomm": 554,
      "ors": 555,
      "ree": 556,
      "ang": 557,
      "ound": 558,
      "now": 559,
      "ike": 560,
      "ces": 561,
      "low": 562,
      "Ġbec": 563,
      "Ġup": 564,
      "ĠIt": 565,
      "olog": 566,
      "Ġpre": 567,
      "Ġthan": 568,
      "ĠCh": 569,
      "ie": 570,
      "ile": 571,
      "ian": 572,
      "Ġmay": 573,
      "Ġyear": 574,
      "Ġqu": 575,
      "ric": 576,
      "Ġsome": 577,
      "iff": 578,
      "Ġbeen": 579,
      "Ġrec": 580,
      "Ġthere": 581,
      "ays": 582,
      "ople": 583,
      "ates": 584,
      "ail": 585,
      "ings": 586,
      "nder": 587,
      "mer": 588,
      "Ġwhen": 589,
      "ph": 590,
      "ough": 591,
      "Ġits": 592,
      "Ġag": 593,
      "Ġgo": 594,
      "Ġinto": 595,
      "Ġtime": 596,
      "rit": 597,
      "ren": 598,
      "Ġtra": 599,
      "vers": 600,
      "Ġwork": 601,
      "Ġhad": 602,
      "Ġ20": 603,
      "ons": 604,
      "erv": 605,
      "te": 606,
      "ĠV": 607,
      "Ġthese": 608,
      "Ġover": 609,
      "rough": 610,
      "ĠThis": 611,
      "ally": 612,
      "ond": 613,
      "lud": 614,
      "ove": 615,
      "Ġhow": 616,
      "Ġpeople": 617,
      "Ġdiff": 618,
      "ms": 619,
      "Ġra": 620,
      "tern": 621,
      "Ġcons": 622,
      "ause": 623,
      "Ġcol": 624,
      "ll": 625,
      "Ġour": 626,
      "Ġ3": 627,
      "Ġro": 628,
      "int": 629,
      "Ġtr": 630,
      "Ġact": 631,
      "Ġuse": 632,
      "Ġbet": 633,
      "ific": 634,
      "Ġmost": 635,
      "we": 636,
      "lic": 637,
      "irst": 638,
      "Ġwould": 639,
      "Ġknow": 640,
      "Ġsa": 641,
      "ject": 642,
      "Ġdes": 643,
      "lect": 644,
      "Ġunder": 645,
      "ys": 646,
      "ments": 647,
      "ious": 648,
      "Ġlike": 649,
      "ities": 650,
      "ning": 651,
      "Ġbl": 652,
      "ook": 653,
      "row": 654,
      "Ġtw": 655,
      "Ġacc": 656,
      "ĠY": 657,
      "Ġnew": 658,
      "alth": 659,
      "stem": 660,
      "les": 661,
      "velop": 662,
      "Ġrel": 663,
      "Ġsuch": 664,
      "ational": 665,
      "Ġif": 666,
      "ient": 667,
      "Ġrep": 668,
      "Ġneed": 669,
      "Ġany": 670,
      "ffect": 671,
      "Ġno": 672,
      "hed": 673,
      "Ġinclud": 674,
      "Ġchild": 675,
      "Ġgen": 676,
      "ative": 677,
      "ular": 678,
      "Ġonly": 679,
      "ple": 680,
      "Ġwhat": 681,
      "Ġpr": 682,
      "),": 683,
      "Ġhel": 684,
      "ob": 685,
      "cess": 686,
      "ced": 687,
      "Ġprov": 688,
      "ov": 689,
      "Ġph": 690,
      "ĠUn": 691,
      "Ġpo": 692,
      "Ġfirst": 693,
      "ating": 694,
      "Ġmany": 695,
      "Ġused": 696,
      "yp": 697,
      "Ġthrough": 698,
      "Ġprodu": 699,
      "Ġhelp": 700,
      "iet": 701,
      "Ġoff": 702,
      "Ġind": 703,
      "Ġam": 704,
      "uc": 705,
      "erm": 706,
      "oss": 707,
      "Ġdevelop": 708,
      "ise": 709,
      "ath": 710,
      "fter": 711,
      "round": 712,
      "Ġspec": 713,
      "ool": 714,
      "rib": 715,
      "ne": 716,
      "Ġac": 717,
      "ark": 718,
      "Ġem": 719,
      "Ġreg": 720,
      "ts": 721,
      "uring": 722,
      "ics": 723,
      "Ġtwo": 724,
      "Ġfe": 725,
      "Ġexp": 726,
      "ink": 727,
      "Ġsystem": 728,
      "hen": 729,
      "ful": 730,
      "iss": 731,
      "ied": 732,
      "Ġob": 733,
      "old": 734,
      "oth": 735,
      "eth": 736,
      "ility": 737,
      "Ġdiffere": 738,
      "Ġatt": 739,
      "Ġass": 740,
      "ible": 741,
      "Ġdec": 742,
      "Ġsur": 743,
      "rop": 744,
      "ife": 745,
      "ased": 746,
      "ĠHe": 747,
      "ten": 748,
      "Ġ-": 749,
      "als": 750,
      "ert": 751,
      "Ġ200": 752,
      "ĠâĢĵ": 753,
      "Ġadd": 754,
      "ange": 755,
      "arch": 756,
      "Ġ201": 757,
      "ng": 758,
      "ower": 759,
      "aw": 760,
      "ble": 761,
      "fore": 762,
      "Ġshould": 763,
      "In": 764,
      "Ġsupp": 765,
      "ram": 766,
      "ures": 767,
      "Ġfl": 768,
      "Ġyears": 769,
      "sel": 770,
      "Ġwell": 771,
      "Ġrem": 772,
      "ween": 773,
      "ract": 774,
      "Ġinv": 775,
      "own": 776,
      "ade": 777,
      "ution": 778,
      "Ġ4": 779,
      "gan": 780,
      "Ġco": 781,
      "Ġcould": 782,
      "Ġwater": 783,
      "its": 784,
      "Ġsub": 785,
      "Ġsm": 786,
      "Ġbetween": 787,
      "cy": 788,
      "Ġwhere": 789,
      "wn": 790,
      "hes": 791,
      "Ġpres": 792,
      "Ġhigh": 793,
      "ily": 794,
      "uch": 795,
      "Ġher": 796,
      "Ġear": 797,
      "land": 798,
      "ident": 799,
      "Ġhealth": 800,
      "ick": 801,
      "Ġmake": 802,
      "ited": 803,
      "xt": 804,
      "ever": 805,
      "Ġpers": 806,
      "ss": 807,
      "Ġtrans": 808,
      "Ġbu": 809,
      "Ġ5": 810,
      "form": 811,
      "Ġrese": 812,
      "Ġget": 813,
      "Ġinter": 814,
      "ants": 815,
      "ology": 816,
      "ivers": 817,
      "Ġimport": 818,
      "meric": 819,
      "Ġdisc": 820,
      "Ġpol": 821,
      "Ġmod": 822,
      "Ġform": 823,
      "ural": 824,
      "ting": 825,
      "ists": 826,
      "ience": 827,
      "Ġinst": 828,
      "chool": 829,
      "Ġnum": 830,
      "ines": 831,
      "ism": 832,
      "Ġfound": 833,
      "chn": 834,
      "ron": 835,
      "ef": 836,
      "ict": 837,
      "Ġexam": 838,
      "Ġmed": 839,
      "ins": 840,
      "Ġcent": 841,
      "ually": 842,
      "gy": 843,
      "Ġthen": 844,
      "Ġlar": 845,
      "Ġlong": 846,
      "Ġeven": 847,
      "Ġlear": 848,
      "Ġbecause": 849,
      "Ġ18": 850,
      "urn": 851,
      "Ġhum": 852,
      "oy": 853,
      "Ġvery": 854,
      "Ġafter": 855,
      "Ġworld": 856,
      "Ġjust": 857,
      "Ġinform": 858,
      "cept": 859,
      "Ġsim": 860,
      "Ġdifferent": 861,
      "ata": 862,
      "ature": 863,
      "Ġincre": 864,
      "ft": 865,
      "Ġed": 866,
      "Ġexper": 867,
      "other": 868,
      "Ġeffect": 869,
      "hat": 870,
      "Ġway": 871,
      "ness": 872,
      "Ġcount": 873,
      "Ġdet": 874,
      "Ġref": 875,
      "Ġcar": 876,
      "Ġsee": 877,
      "ĠAmeric": 878,
      "ically": 879,
      "Ġpub": 880,
      "get": 881,
      "aking": 882,
      "Ġfol": 883,
      "vent": 884,
      "Ġthose": 885,
      "ives": 886,
      "Ġcall": 887,
      "Ġsoc": 888,
      "Ġtyp": 889,
      "Ġresp": 890,
      "Ġgener": 891,
      "tle": 892,
      "Ġevery": 893,
      "iew": 894,
      "Ġsaid": 895,
      "Ġke": 896,
      "cer": 897,
      "ork": 898,
      "Ġvar": 899,
      "Ġext": 900,
      "con": 901,
      "ck": 902,
      "Ġsec": 903,
      "omm": 904,
      "Ġprog": 905,
      "Ġbeing": 906,
      "Ġsign": 907,
      "Ġchildren": 908,
      "Ġloc": 909,
      "ues": 910,
      "ds": 911,
      "Ġfact": 912,
      "arm": 913,
      "Ġeach": 914,
      "led": 915,
      "vern": 916,
      ".âĢĿ": 917,
      "ases": 918,
      "Ġset": 919,
      "Ġgra": 920,
      "ruct": 921,
      "ps": 922,
      "Ġlife": 923,
      "Ġpartic": 924,
      "Ġresult": 925,
      "Ġpat": 926,
      "Ġca": 927,
      "ĠAl": 928,
      "Ġshe": 929,
      "ved": 930,
      "Ġprocess": 931,
      "ather": 932,
      "Ġmy": 933,
      "Ġfam": 934,
      "Ġdist": 935,
      "Ġmuch": 936,
      "Ġown": 937,
      "ages": 938,
      "Ġdef": 939,
      "Ġart": 940,
      "ĠPro": 941,
      "Ġduring": 942,
      "cent": 943,
      "Th": 944,
      "ody": 945,
      "..": 946,
      "Ġmon": 947,
      "Ġimportant": 948,
      "Ġread": 949,
      "ĠWe": 950,
      "Ġinformation": 951,
      "Ġrequ": 952,
      "iron": 953,
      "Ġcre": 954,
      "Ġent": 955,
      "ward": 956,
      "Ġright": 957,
      "imes": 958,
      "Ġcommun": 959,
      "Ġtechn": 960,
      "Ġsame": 961,
      "Ġaut": 962,
      "Ġfollow": 963,
      "Ġdep": 964,
      "ĠThey": 965,
      "io": 966,
      "Ġins": 967,
      "Ġstudents": 968,
      "Ġlevel": 969,
      "ĠAs": 970,
      "ized": 971,
      "Ġmade": 972,
      "Ġlead": 973,
      "gg": 974,
      "Ġfood": 975,
      "ection": 976,
      "ices": 977,
      "Ġend": 978,
      "ĠRe": 979,
      "Ġdoes": 980,
      "any": 981,
      "hip": 982,
      "ted": 983,
      "Ġcur": 984,
      "ĠAr": 985,
      "Ġstudy": 986,
      "Ġgrow": 987,
      "Ġ6": 988,
      "Ġperson": 989,
      "Ġsk": 990,
      "the": 991,
      "Ġfind": 992,
      "und": 993,
      "Ġstr": 994,
      "ize": 995,
      "ĠIf": 996,
      "Ġpop": 997,
      "Ġmin": 998,
      "Ġboth": 999,
      "ars": 1000,
      "Ġgood": 1001,
      "Ġproble": 1002,
      "Ġback": 1003,
      "ĠFor": 1004,
      "ĠAn": 1005,
      "||": 1006,
      "Ġbefore": 1007,
      "Ġdata": 1008,
      "inal": 1009,
      "Ġhist": 1010,
      "Ġche": 1011,
      "Ġav": 1012,
      "ty": 1013,
      "ĠCon": 1014,
      "Ġsmall": 1015,
      "ale": 1016,
      "iversity": 1017,
      "ince": 1018,
      "Ġgrou": 1019,
      "Ġshow": 1020,
      "Ġschool": 1021,
      "Ġexpl": 1022,
      "Ġagain": 1023,
      "Ġbo": 1024,
      "Ġcomple": 1025,
      "000": 1026,
      "Ġusing": 1027,
      "19": 1028,
      "ially": 1029,
      "Ġprot": 1030,
      "omen": 1031,
      "orn": 1032,
      "ished": 1033,
      "viron": 1034,
      "iel": 1035,
      "ined": 1036,
      "read": 1037,
      "oh": 1038,
      "der": 1039,
      "nce": 1040,
      "imate": 1041,
      "Ġmain": 1042,
      "ality": 1043,
      "20": 1044,
      "Ġdi": 1045,
      "rol": 1046,
      "ax": 1047,
      "Ġoften": 1048,
      "Ġgl": 1049,
      "stand": 1050,
      "Ġtest": 1051,
      "ĠNew": 1052,
      "Ġstate": 1053,
      "ivid": 1054,
      "Ġless": 1055,
      ".,": 1056,
      "Ġposs": 1057,
      "ĠHow": 1058,
      "Ġwhile": 1059,
      "ran": 1060,
      "irect": 1061,
      "ral": 1062,
      "ute": 1063,
      "Ġlit": 1064,
      "Ġcell": 1065,
      "ix": 1066,
      "Ġhim": 1067,
      "Ġnow": 1068,
      "ury": 1069,
      "Ġsol": 1070,
      "Ġtreat": 1071,
      "Ġserv": 1072,
      "Ġday": 1073,
      "ergy": 1074,
      "Ġval": 1075,
      "Ġhuman": 1076,
      "ulation": 1077,
      "ien": 1078,
      "Ġpower": 1079,
      "Ġdise": 1080,
      "Ġnumber": 1081,
      "Ġocc": 1082,
      "Ġtake": 1083,
      "Ġvis": 1084,
      "ĠSp": 1085,
      "Ġris": 1086,
      "ĠInd": 1087,
      "Ġprovid": 1088,
      "iety": 1089,
      "akes": 1090,
      "ered": 1091,
      "Ġmem": 1092,
      "Ġresearch": 1093,
      "ier": 1094,
      "uss": 1095,
      "Ġorgan": 1096,
      "Ġchar": 1097,
      "ock": 1098,
      "Ġthree": 1099,
      "ex": 1100,
      "Ġsupport": 1101,
      "Ġclass": 1102,
      "air": 1103,
      "Ġdown": 1104,
      "Ġfun": 1105,
      "ters": 1106,
      "iving": 1107,
      "Ġest": 1108,
      "cl": 1109,
      "up": 1110,
      "Ġbody": 1111,
      "ves": 1112,
      "Ġgovern": 1113,
      "dition": 1114,
      "ven": 1115,
      "Ġaround": 1116,
      "Ġmust": 1117,
      "Ġactiv": 1118,
      "hers": 1119,
      "vironment": 1120,
      "Ġbel": 1121,
      "Ġland": 1122,
      "Ġdid": 1123,
      "ĠSc": 1124,
      "Ġ10": 1125,
      "iqu": 1126,
      "âĢĶ": 1127,
      "Ġpoint": 1128,
      "Ġgreat": 1129,
      "Ġdesign": 1130,
      "Ġhand": 1131,
      "Ġplan": 1132,
      "Ġelect": 1133,
      "Ġ7": 1134,
      "ital": 1135,
      "ĠBut": 1136,
      "aj": 1137,
      "self": 1138,
      "Ġconf": 1139,
      "Ġlook": 1140,
      "day": 1141,
      "rent": 1142,
      "Ġstart": 1143,
      "ouse": 1144,
      "Ġcommon": 1145,
      "Ġser": 1146,
      "ains": 1147,
      "Ġcontin": 1148,
      "ave": 1149,
      "Ġlarge": 1150,
      "ving": 1151,
      "Ġredu": 1152,
      "ger": 1153,
      "ah": 1154,
      "ium": 1155,
      "Ġret": 1156,
      "Ġexample": 1157,
      "gen": 1158,
      "This": 1159,
      "acter": 1160,
      "ross": 1161,
      "itions": 1162,
      "Ġthough": 1163,
      "Ġop": 1164,
      "Ġcour": 1165,
      "Ġcle": 1166,
      "ared": 1167,
      "Ġconst": 1168,
      "com": 1169,
      "ull": 1170,
      "ee": 1171,
      "Ġincluding": 1172,
      "ring": 1173,
      ",âĢĿ": 1174,
      "Ġreport": 1175,
      "Ġpublic": 1176,
      "outh": 1177,
      "Ġcalled": 1178,
      "way": 1179,
      "Ġ8": 1180,
      ".\"": 1181,
      "eg": 1182,
      "Ġwrit": 1183,
      "Ġallow": 1184,
      "ional": 1185,
      "Ġsom": 1186,
      "Ġcor": 1187,
      "Ġmet": 1188,
      "Ġbuild": 1189,
      "Ġcare": 1190,
      "Ġeduc": 1191,
      "Ġstill": 1192,
      "ash": 1193,
      "ĠThere": 1194,
      "Ġknown": 1195,
      "Ġide": 1196,
      "inc": 1197,
      "iven": 1198,
      "els": 1199,
      "ĠAnd": 1200,
      "rain": 1201,
      "esp": 1202,
      "Ġthink": 1203,
      "lish": 1204,
      "osed": 1205,
      "erest": 1206,
      "reen": 1207,
      "Ġequ": 1208,
      "Ġappro": 1209,
      "iod": 1210,
      "Ġadv": 1211,
      "Ġpract": 1212,
      "de": 1213,
      "__": 1214,
      "ĠIs": 1215,
      "Ġunderstand": 1216,
      "Ġgu": 1217,
      "conom": 1218,
      "ived": 1219,
      "iver": 1220,
      "Ġquest": 1221,
      "Ġfew": 1222,
      "ected": 1223,
      "ĠâĢĺ": 1224,
      "ĠYou": 1225,
      "âĢľ": 1226,
      "10": 1227,
      "ination": 1228,
      "âĢĵ": 1229,
      "Ġ199": 1230,
      "ired": 1231,
      "ids": 1232,
      "Ġdr": 1233,
      "bers": 1234,
      "Ġbeh": 1235,
      "Ġplace": 1236,
      "ense": 1237,
      "oci": 1238,
      "ĠEng": 1239,
      "aterial": 1240,
      "eral": 1241,
      "Ġmat": 1242,
      "ividual": 1243,
      "Ġ9": 1244,
      "Ġmight": 1245,
      "Ġeas": 1246,
      "oms": 1247,
      "oun": 1248,
      "Ġwithout": 1249,
      "ries": 1250,
      "ĠWh": 1251,
      "Ġstand": 1252,
      "itive": 1253,
      "ians": 1254,
      "Ġchang": 1255,
      "raph": 1256,
      "Ġcap": 1257,
      "ization": 1258,
      "ĠUniversity": 1259,
      "Ġlearn": 1260,
      "tt": 1261,
      "ential": 1262,
      "Ġdem": 1263,
      "ior": 1264,
      "ources": 1265,
      "Ġwithin": 1266,
      "Ġchange": 1267,
      "ason": 1268,
      "Ġtem": 1269,
      "ĠThese": 1270,
      "me": 1271,
      "Ġcaus": 1272,
      "Ġsocial": 1273,
      "Ġphys": 1274,
      "Ġiss": 1275,
      "ording": 1276,
      "ertain": 1277,
      "Ġdirect": 1278,
      "man": 1279,
      "ĠDe": 1280,
      "Ġenergy": 1281,
      "Ġpresent": 1282,
      "Ġproduct": 1283,
      "orth": 1284,
      "Ġpur": 1285,
      "ethod": 1286,
      "ering": 1287,
      "Ġwant": 1288,
      "Ġlaw": 1289,
      "ption": 1290,
      "Ġenvironment": 1291,
      "ffic": 1292,
      "Ġsl": 1293,
      "Ġident": 1294,
      "ĠAmerican": 1295,
      "illion": 1296,
      "Ġanother": 1297,
      "Ġdon": 1298,
      "Ġbre": 1299,
      "Ġindividual": 1300,
      "ration": 1301,
      "less": 1302,
      "angu": 1303,
      "Ġdevelopment": 1304,
      "Ġdesc": 1305,
      "ets": 1306,
      "line": 1307,
      "ton": 1308,
      "Ġdisease": 1309,
      "Ġproject": 1310,
      "alk": 1311,
      "irc": 1312,
      "Ġsym": 1313,
      "ner": 1314,
      "Ġpot": 1315,
      "ability": 1316,
      "Ġ&": 1317,
      "sc": 1318,
      "ccess": 1319,
      "to": 1320,
      "Ġplay": 1321,
      "eng": 1322,
      "Ġmaterial": 1323,
      "rist": 1324,
      "ajor": 1325,
      "Ġpass": 1326,
      "Ġwomen": 1327,
      "Ġpos": 1328,
      "Ġhome": 1329,
      "Ġinterest": 1330,
      "Ġrest": 1331,
      "Ġimm": 1332,
      "Ġben": 1333,
      "Ġarea": 1334,
      "ug": 1335,
      "Ġsit": 1336,
      "'t": 1337,
      "Ġimpro": 1338,
      "Ġbelie": 1339,
      "Ġprof": 1340,
      "iness": 1341,
      "arent": 1342,
      "Ġbas": 1343,
      "ified": 1344,
      "It": 1345,
      "Ġve": 1346,
      "Ġlight": 1347,
      "Ġcult": 1348,
      "ental": 1349,
      "Ġmus": 1350,
      "rodu": 1351,
      "agn": 1352,
      "Ġinclude": 1353,
      "Ġgovernment": 1354,
      "erc": 1355,
      "ris": 1356,
      "lished": 1357,
      "ained": 1358,
      "ological": 1359,
      "bs": 1360,
      "Ġwar": 1361,
      "Ġrisk": 1362,
      "ern": 1363,
      "Ġcontrol": 1364,
      "Ġant": 1365,
      "az": 1366,
      "ats": 1367,
      "hor": 1368,
      "ield": 1369,
      "Ġleg": 1370,
      "Ġagainst": 1371,
      "ĠPh": 1372,
      "Ġpain": 1373,
      "Ġpar": 1374,
      "Ġearly": 1375,
      "ify": 1376,
      "ently": 1377,
      "Ġeconom": 1378,
      "Ġet": 1379,
      "Ġbecome": 1380,
      "Ġeng": 1381,
      "ik": 1382,
      "Ġblood": 1383,
      "Ġbest": 1384,
      "Ġopp": 1385,
      "ways": 1386,
      "gin": 1387,
      "Ġold": 1388,
      "Ġele": 1389,
      "Ġmil": 1390,
      "atic": 1391,
      "Ġlow": 1392,
      "Ġprogram": 1393,
      "Ġmark": 1394,
      "Ġsever": 1395,
      "Ġmove": 1396,
      "arc": 1397,
      "Ġanim": 1398,
      "ĠSh": 1399,
      "ĠAd": 1400,
      "Ġproper": 1401,
      "Ġmeas": 1402,
      "ead": 1403,
      "atural": 1404,
      "Ġmethod": 1405,
      "cing": 1406,
      "ision": 1407,
      "Ġsecond": 1408,
      "Ġreal": 1409,
      "ories": 1410,
      "Ġorder": 1411,
      "Ġanal": 1412,
      "here": 1413,
      "Ġbetter": 1414,
      "ission": 1415,
      "Ġtoo": 1416,
      "Ġfamily": 1417,
      "Ġlast": 1418,
      "Ġmeans": 1419,
      "ank": 1420,
      "Ġter": 1421,
      "Ġhere": 1422,
      "Ġunt": 1423,
      "Ġfore": 1424,
      "use": 1425,
      "Ġpercent": 1426,
      "ĠHowever": 1427,
      "Ġhistory": 1428,
      "ining": 1429,
      "Ġgroup": 1430,
      "ource": 1431,
      "Ġmajor": 1432,
      "ĠUnited": 1433,
      "amp": 1434,
      "Ġorig": 1435,
      "Ġparticular": 1436,
      "Ġtre": 1437,
      "idence": 1438,
      "Ġprovide": 1439,
      "Ġtop": 1440,
      "rap": 1441,
      "ples": 1442,
      "Ġoccur": 1443,
      "Ġnear": 1444,
      "ider": 1445,
      "ention": 1446,
      "Ġoper": 1447,
      "Ġdev": 1448,
      "Ġsay": 1449,
      "ĠCol": 1450,
      "Ġcurrent": 1451,
      "Ġsaf": 1452,
      "Ġpossible": 1453,
      "ĠZ": 1454,
      "pect": 1455,
      "ĠEx": 1456,
      "Ġair": 1457,
      "ĠâĢĶ": 1458,
      "eed": 1459,
      "ote": 1460,
      "Ġperiod": 1461,
      "Ġmar": 1462,
      "Ġkeep": 1463,
      "ware": 1464,
      "Ġfin": 1465,
      "ards": 1466,
      "ret": 1467,
      "Ġavail": 1468,
      "ills": 1469,
      "icle": 1470,
      "ĠCl": 1471,
      "Ġcause": 1472,
      "Ġseveral": 1473,
      "Ġscient": 1474,
      "ĠCan": 1475,
      "omp": 1476,
      "oid": 1477,
      "Ġsince": 1478,
      "Ġ15": 1479,
      "ĠRes": 1480,
      "Ġaddition": 1481,
      "ograph": 1482,
      "lu": 1483,
      "ina": 1484,
      "Ġindu": 1485,
      "ĠWhen": 1486,
      "view": 1487,
      "Ġable": 1488,
      "Ġopen": 1489,
      "ĠPl": 1490,
      "Ġhig": 1491,
      "Ġthings": 1492,
      "Ġinvol": 1493,
      "Ġhapp": 1494,
      "Ġel": 1495,
      "Ġlangu": 1496,
      "Ġobject": 1497,
      "though": 1498,
      "Ġperform": 1499,
      "ients": 1500,
      "ĠSe": 1501,
      "Ġmen": 1502,
      "Ġspecies": 1503,
      "Ġlearning": 1504,
      "Ġnon": 1505,
      "ĠComm": 1506,
      "Ġprom": 1507,
      "urop": 1508,
      "Ġbenef": 1509,
      "Ġmean": 1510,
      "Ġsays": 1511,
      "ogn": 1512,
      ",\"": 1513,
      "Ġfre": 1514,
      "Ġothers": 1515,
      "Ġareas": 1516,
      "Ġlim": 1517,
      "ĠAt": 1518,
      "ĠGod": 1519,
      "ator": 1520,
      "Ġname": 1521,
      "ĠStates": 1522,
      "Ġbus": 1523,
      "Ġbased": 1524,
      "ames": 1525,
      "par": 1526,
      "Ġprop": 1527,
      "Ġ[": 1528,
      "Ġaffect": 1529,
      "Ġfour": 1530,
      "Ġcal": 1531,
      "Ġcountry": 1532,
      "Ġamong": 1533,
      "Ġfeel": 1534,
      "ĠQ": 1535,
      "ilar": 1536,
      "rid": 1537,
      "ended": 1538,
      "Ġlo": 1539,
      "Ġtimes": 1540,
      "ole": 1541,
      "Ġplant": 1542,
      "Ġfollowing": 1543,
      "sy": 1544,
      "Ġcells": 1545,
      "ploy": 1546,
      "Ġstruct": 1547,
      "ĠTo": 1548,
      "osp": 1549,
      "Ġlab": 1550,
      "stit": 1551,
      "une": 1552,
      "ek": 1553,
      "of": 1554,
      "Ġcertain": 1555,
      "Ġhead": 1556,
      "Ġtreatment": 1557,
      "Ġcase": 1558,
      "Ġcond": 1559,
      "Ġsignific": 1560,
      "ably": 1561,
      "Ġsuccess": 1562,
      "ĠChrist": 1563,
      "ling": 1564,
      "Ġavailable": 1565,
      "Ġrun": 1566,
      "ised": 1567,
      "Ġview": 1568,
      "Ġcost": 1569,
      "Ġlater": 1570,
      "Ġage": 1571,
      "elf": 1572,
      "urope": 1573,
      "Ġaccess": 1574,
      "Ġlocal": 1575,
      "Ġbir": 1576,
      "ww": 1577,
      "Ġbro": 1578,
      "urther": 1579,
      "Ġfar": 1580,
      "Ġfree": 1581,
      "Ġfac": 1582,
      "Ġlittle": 1583,
      "What": 1584,
      "Ġpost": 1585,
      "Ġ.": 1586,
      "ends": 1587,
      "Ġrece": 1588,
      "Ġmonth": 1589,
      "Ġ17": 1590,
      "ots": 1591,
      "Ġpress": 1592,
      "ĠEn": 1593,
      "Ġconn": 1594,
      "ĠCent": 1595,
      "Ġcome": 1596,
      "be": 1597,
      "ocus": 1598,
      "Ġdel": 1599,
      "We": 1600,
      "Ġlist": 1601,
      "hy": 1602,
      "Ġprevent": 1603,
      "Ġuntil": 1604,
      "ething": 1605,
      "work": 1606,
      "Ġput": 1607,
      "ope": 1608,
      "ither": 1609,
      "Ġproblem": 1610,
      "resent": 1611,
      "oint": 1612,
      "Ġlet": 1613,
      "ggest": 1614,
      "Ġcreat": 1615,
      "ged": 1616,
      "ression": 1617,
      "Ġbi": 1618,
      "Ġhard": 1619,
      "olution": 1620,
      "Ġintern": 1621,
      "ĠNational": 1622,
      "Ġseem": 1623,
      "Ġbook": 1624,
      "18": 1625,
      "Ġpolit": 1626,
      "Ġproblems": 1627,
      "ĠOr": 1628,
      "Ġlevels": 1629,
      "str": 1630,
      "icult": 1631,
      "Ġamount": 1632,
      "12": 1633,
      "ately": 1634,
      "Ġassoci": 1635,
      "oks": 1636,
      "Ġgiven": 1637,
      "ĠEurope": 1638,
      "ured": 1639,
      "ledge": 1640,
      "Ġflow": 1641,
      "Ġtype": 1642,
      "por": 1643,
      "ones": 1644,
      "Ġturn": 1645,
      "If": 1646,
      "Ġsuggest": 1647,
      "Ġshort": 1648,
      "Ġnatural": 1649,
      "Ġ12": 1650,
      "aper": 1651,
      "not": 1652,
      "Ġyoung": 1653,
      "Ġess": 1654,
      "Ġsw": 1655,
      "over": 1656,
      "Ġ16": 1657,
      "Ġcho": 1658,
      "aken": 1659,
      "uture": 1660,
      "Ġmult": 1661,
      "sp": 1662,
      "Ġvol": 1663,
      "Ġrad": 1664,
      "Ġdeterm": 1665,
      "ortun": 1666,
      "Ġ$": 1667,
      "Ġcirc": 1668,
      "Ġmaking": 1669,
      "Ġheart": 1670,
      "Ġcomput": 1671,
      "ances": 1672,
      "ĠAf": 1673,
      "ohn": 1674,
      "Ġsomething": 1675,
      "ned": 1676,
      "Ġinvest": 1677,
      "pr": 1678,
      "Ġeducation": 1679,
      "orld": 1680,
      "ication": 1681,
      "ides": 1682,
      "ĠOn": 1683,
      "Ġcourse": 1684,
      "hem": 1685,
      "Ġfunction": 1686,
      "ĠTe": 1687,
      "Ġdra": 1688,
      "ĠMed": 1689,
      "Ġcentury": 1690,
      "atory": 1691,
      "Ġimpact": 1692,
      "vious": 1693,
      "ĠBe": 1694,
      "Ġalong": 1695,
      "aps": 1696,
      "Ġdeath": 1697,
      "Ġcomb": 1698,
      "Ġfocus": 1699,
      "Ġappear": 1700,
      "Ġdue": 1701,
      "Ġsing": 1702,
      "Ġfil": 1703,
      "Ġlikely": 1704,
      "Ġalways": 1705,
      "Ġwords": 1706,
      "orts": 1707,
      "ĠAll": 1708,
      "ym": 1709,
      "Ġauthor": 1710,
      "Ġclear": 1711,
      "Ġsignificant": 1712,
      "Ġpopulation": 1713,
      "agement": 1714,
      "ried": 1715,
      "ĠUS": 1716,
      "ember": 1717,
      "Ġincrease": 1718,
      "Ġdays": 1719,
      "Ġdescrib": 1720,
      "Ġvir": 1721,
      "ont": 1722,
      "Ġteac": 1723,
      "ending": 1724,
      "Ġgive": 1725,
      "Ġrele": 1726,
      "Ġexist": 1727,
      "ecially": 1728,
      "Ġcancer": 1729,
      "face": 1730,
      "Ġlanguage": 1731,
      "Ġbehav": 1732,
      "Ġey": 1733,
      "Ġtoday": 1734,
      "Ġabove": 1735,
      "Ġobs": 1736,
      "Ġsystems": 1737,
      "cle": 1738,
      "icro": 1739,
      "Ġusually": 1740,
      "etic": 1741,
      "As": 1742,
      "Ġmillion": 1743,
      "Ġpast": 1744,
      "Ġmot": 1745,
      "Ġmov": 1746,
      "iation": 1747,
      "Ġcharacter": 1748,
      "most": 1749,
      "Ġresults": 1750,
      "isc": 1751,
      "Ġill": 1752,
      "ored": 1753,
      "ĠWhat": 1754,
      "Ġdifficult": 1755,
      "Ġestab": 1756,
      "Ġconditions": 1757,
      "asing": 1758,
      "aster": 1759,
      "min": 1760,
      "Ġline": 1761,
      "ape": 1762,
      "mit": 1763,
      "ĠBrit": 1764,
      "ively": 1765,
      "Ġspecific": 1766,
      "Ġ0": 1767,
      "Ġcommunity": 1768,
      "Ġnext": 1769,
      "idd": 1770,
      "Ġenc": 1771,
      "ĠEar": 1772,
      "15": 1773,
      "Ġbegin": 1774,
      "Ġrecord": 1775,
      "ĠGerm": 1776,
      "Ġ'": 1777,
      "Ġtemper": 1778,
      "ours": 1779,
      "anc": 1780,
      "Ġdiscuss": 1781,
      "ler": 1782,
      "ruction": 1783,
      "Ġspace": 1784,
      "selves": 1785,
      "Ġer": 1786,
      "Ġexperience": 1787,
      "Ġcreate": 1788,
      "especially": 1789,
      "app": 1790,
      "aim": 1791,
      "Ġsimilar": 1792,
      "Ġgre": 1793,
      "Ġnever": 1794,
      "ribut": 1795,
      "Ġwhy": 1796,
      "Ġspecial": 1797,
      "nal": 1798,
      "Ġneeds": 1799,
      "Ġcrit": 1800,
      "Ġdam": 1801,
      "Ġnecess": 1802,
      "Ġconsum": 1803,
      "There": 1804,
      "Ġhy": 1805,
      "Ġchanges": 1806,
      "Ġfuture": 1807,
      "Ġleast": 1808,
      "obal": 1809,
      "Ġstrong": 1810,
      "Ġkind": 1811,
      "Ġask": 1812,
      "ators": 1813,
      "Ġgr": 1814,
      "Ġhowever": 1815,
      "Ġapplic": 1816,
      "St": 1817,
      "Ġtoget": 1818,
      "Ġtogether": 1819,
      "alf": 1820,
      "Ġbrain": 1821,
      "oman": 1822,
      "aining": 1823,
      "Ġparent": 1824,
      "Ġtechnology": 1825,
      "Ġvarious": 1826,
      "11": 1827,
      "Ġhigher": 1828,
      "ĠSo": 1829,
      "rug": 1830,
      "ptoms": 1831,
      "ique": 1832,
      "Ġterm": 1833,
      "ane": 1834,
      "for": 1835,
      "omes": 1836,
      "Ġcomplete": 1837,
      "Ġrespons": 1838,
      "Ġtry": 1839,
      "Ġresearc": 1840,
      "Ġleft": 1841,
      "oney": 1842,
      "Ġcountries": 1843,
      "ilities": 1844,
      "ĠAfric": 1845,
      "Ġcolle": 1846,
      "Ġenough": 1847,
      "Ġacross": 1848,
      "ued": 1849,
      "atch": 1850,
      "Ġhaving": 1851,
      "Ġbecame": 1852,
      "Ġaway": 1853,
      "Ġworking": 1854,
      "ument": 1855,
      "aves": 1856,
      "Ġtru": 1857,
      "Ġworks": 1858,
      "aring": 1859,
      "let": 1860,
      "Ġside": 1861,
      "by": 1862,
      "ateg": 1863,
      "Ġnet": 1864,
      "ĠJohn": 1865,
      "lo": 1866,
      "ray": 1867,
      "aces": 1868,
      "thing": 1869,
      "af": 1870,
      "ĠWar": 1871,
      "mber": 1872,
      "Ġespecially": 1873,
      "oot": 1874,
      "amm": 1875,
      "ĠEnglish": 1876,
      "ilt": 1877,
      "Ġprim": 1878,
      "Ġchem": 1879,
      "Ġcy": 1880,
      "Ġprofess": 1881,
      "50": 1882,
      "How": 1883,
      "Ġbusiness": 1884,
      "NA": 1885,
      "Ġrequire": 1886,
      "Ġ198": 1887,
      "Ġcases": 1888,
      "Ġnorm": 1889,
      "Ġfull": 1890,
      "Ġcity": 1891,
      "rim": 1892,
      "istic": 1893,
      "ires": 1894,
      "Ġkey": 1895,
      "duct": 1896,
      "Ġgeneral": 1897,
      "Ġtool": 1898,
      "port": 1899,
      "ales": 1900,
      "ipp": 1901,
      "ysis": 1902,
      "itor": 1903,
      "ĠGo": 1904,
      "Ġknowledge": 1905,
      "Ġimprove": 1906,
      "Ġfund": 1907,
      "aching": 1908,
      "lement": 1909,
      "ges": 1910,
      "Ġplants": 1911,
      "Ġeffects": 1912,
      "Ġsens": 1913,
      "Ġways": 1914,
      "sw": 1915,
      "Ġhouse": 1916,
      "Ġteam": 1917,
      "Ġz": 1918,
      "Ġstudies": 1919,
      "ode": 1920,
      "ley": 1921,
      "Ġreason": 1922,
      "iting": 1923,
      "Ġconsider": 1924,
      "ae": 1925,
      "200": 1926,
      "ott": 1927,
      "Ġground": 1928,
      "ĠWorld": 1929,
      "erence": 1930,
      "side": 1931,
      "ĠSome": 1932,
      "Ġstory": 1933,
      "Ġrelations": 1934,
      "Ġsubject": 1935,
      "ĠIntern": 1936,
      "Ġrepresent": 1937,
      "Ġgoing": 1938,
      "unt": 1939,
      "Ġstep": 1940,
      "acy": 1941,
      "Ġur": 1942,
      "Ġwhether": 1943,
      "edi": 1944,
      "Ġmakes": 1945,
      "ency": 1946,
      "ready": 1947,
      "30": 1948,
      "Ġmind": 1949,
      "Ġlower": 1950,
      "Ġinflu": 1951,
      "ird": 1952,
      "An": 1953,
      "16": 1954,
      "Ġtypes": 1955,
      "ox": 1956,
      "aut": 1957,
      "17": 1958,
      "Ġprotect": 1959,
      "Ġsum": 1960,
      "Ġfurther": 1961,
      "chie": 1962,
      "Ġquestion": 1963,
      "ung": 1964,
      "Ġevidence": 1965,
      "hing": 1966,
      "ĠGen": 1967,
      "...": 1968,
      "Ġ30": 1969,
      "For": 1970,
      "Ġself": 1971,
      "Ġeff": 1972,
      "Ġrole": 1973,
      "Ġemploy": 1974,
      "Ġphysical": 1975,
      "eb": 1976,
      "Ġpolic": 1977,
      "Ġconcer": 1978,
      "augh": 1979,
      "ĠOne": 1980,
      "apt": 1981,
      "Ġprob": 1982,
      "Ġclose": 1983,
      "urity": 1984,
      "ery": 1985,
      "ĠWith": 1986,
      "Ġseen": 1987,
      "Ġbig": 1988,
      "Ġstat": 1989,
      "Ġbelow": 1990,
      "ĠBl": 1991,
      "ification": 1992,
      "Ġloss": 1993,
      "Ġrather": 1994,
      "Ġpred": 1995,
      "Ġeither": 1996,
      "ĠMar": 1997,
      "ibility": 1998,
      "Ġopt": 1999,
      "Ġaccount": 2000,
      "Ġpatients": 2001,
      "Ġlive": 2002,
      "ĠSoc": 2003,
      "Ġgrowth": 2004,
      "Ġscience": 2005,
      "ann": 2006,
      "etimes": 2007,
      "Ġsymptoms": 2008,
      "Ġgroups": 2009,
      "Ġwr": 2010,
      "overed": 2011,
      "verage": 2012,
      "Ġnut": 2013,
      "ival": 2014,
      "rel": 2015,
      "Ġoffic": 2016,
      "Ġalready": 2017,
      "atures": 2018,
      "Ġsun": 2019,
      "Ġsure": 2020,
      "ĠThat": 2021,
      "Ġsite": 2022,
      "Ġchall": 2023,
      "Ġword": 2024,
      "ands": 2025,
      "//": 2026,
      "Ġens": 2027,
      "Ġvalue": 2028,
      "Ġparticip": 2029,
      "Ġdiet": 2030,
      "Ġ14": 2031,
      "Ġneg": 2032,
      "iam": 2033,
      "ites": 2034,
      "Ġdeg": 2035,
      "ĠCal": 2036,
      "Ġtext": 2037,
      "ules": 2038,
      "ables": 2039,
      "ĠAm": 2040,
      "Ġtoward": 2041,
      "Ġactivity": 2042,
      "ĠAust": 2043,
      "Ġactivities": 2044,
      "ĠCar": 2045,
      "sych": 2046,
      "Ġsingle": 2047,
      "oura": 2048,
      "Ġnational": 2049,
      "Ġreally": 2050,
      "Ġresources": 2051,
      "Ġproducts": 2052,
      "esc": 2053,
      "ream": 2054,
      "ivil": 2055,
      "ĠDr": 2056,
      "Ġtradition": 2057,
      "Ġindic": 2058,
      "Ġreturn": 2059,
      "Ġdone": 2060,
      "Ġrange": 2061,
      "Ġdeveloped": 2062,
      "Ġpotential": 2063,
      "ĠGe": 2064,
      "urch": 2065,
      "rams": 2066,
      "osis": 2067,
      "Ġrecogn": 2068,
      "Ġbuilding": 2069,
      "ĠBy": 2070,
      "iol": 2071,
      "Ġrelig": 2072,
      "Ġphot": 2073,
      "Ġsent": 2074,
      "Ġmembers": 2075,
      "ĠNorth": 2076,
      "yn": 2077,
      "Ġrate": 2078,
      "right": 2079,
      "put": 2080,
      "Ġcollect": 2081,
      "Ġaccording": 2082,
      "Ġtaken": 2083,
      "Ġonce": 2084,
      "://": 2085,
      "Ġclimate": 2086,
      "Ġmass": 2087,
      "Ġarticle": 2088,
      "Ġmodel": 2089,
      "Ġfall": 2090,
      "Ġmedical": 2091,
      "Ġann": 2092,
      "Ġwhole": 2093,
      "ĠLe": 2094,
      "Ġdoct": 2095,
      "Ġquality": 2096,
      "Ġlot": 2097,
      "roll": 2098,
      "Ġfive": 2099,
      "Ġpolitical": 2100,
      "14": 2101,
      "Ġproduction": 2102,
      "ĠMay": 2103,
      "ĠHealth": 2104,
      "13": 2105,
      "Ġevent": 2106,
      "Ġthemselves": 2107,
      "Ġdig": 2108,
      "amin": 2109,
      "Ġdom": 2110,
      "Ġupon": 2111,
      "Ġresearchers": 2112,
      "ublic": 2113,
      "rict": 2114,
      "\".": 2115,
      "Ġmeet": 2116,
      "earch": 2117,
      "Ġcame": 2118,
      "):": 2119,
      "ches": 2120,
      "Ġachie": 2121,
      "bon": 2122,
      "Ġfield": 2123,
      "Ġ197": 2124,
      "Ġcreated": 2125,
      "val": 2126,
      "Ġnature": 2127,
      "idered": 2128,
      "ison": 2129,
      "ournal": 2130,
      "ober": 2131,
      "ĠSouth": 2132,
      "Ġindust": 2133,
      "Ġwind": 2134,
      "Ġinit": 2135,
      "âĢ¦": 2136,
      "ule": 2137,
      "Ġabs": 2138,
      "Ġdetail": 2139,
      "Ġhold": 2140,
      "like": 2141,
      "Ġconcept": 2142,
      "Ġsurface": 2143,
      "Ġhistor": 2144,
      "Ġflu": 2145,
      "Ġsitu": 2146,
      "apan": 2147,
      "ĠIm": 2148,
      "Ġliving": 2149,
      "Ġitself": 2150,
      "Ġdrug": 2151,
      "ER": 2152,
      "iple": 2153,
      "Ġred": 2154,
      "Ġfrequ": 2155,
      "Ġdest": 2156,
      "fact": 2157,
      "Ġcannot": 2158,
      "When": 2159,
      "Ġpaper": 2160,
      "Ġbat": 2161,
      "Ġreduce": 2162,
      "Ġissues": 2163,
      "ils": 2164,
      "ĠShe": 2165,
      "ety": 2166,
      "ĠAmerica": 2167,
      "ĠAb": 2168,
      "Ġsource": 2169,
      "acc": 2170,
      "Ġobserv": 2171,
      "ips": 2172,
      "Ġintrodu": 2173,
      "ront": 2174,
      "fficient": 2175,
      "Ġpublished": 2176,
      "Ġwide": 2177,
      "leep": 2178,
      "Ġquestions": 2179,
      "fer": 2180,
      "Ġlay": 2181,
      "Ġwhite": 2182,
      "Ġstates": 2183,
      "ĠYork": 2184,
      "Ġmodern": 2185,
      "Ġfat": 2186,
      "Ġfail": 2187,
      "Ġdoc": 2188,
      "Ġthought": 2189,
      "SA": 2190,
      "Ġconsidered": 2191,
      "Ġ=": 2192,
      "Ġver": 2193,
      "reme": 2194,
      "Ġweight": 2195,
      "ĠAss": 2196,
      "ask": 2197,
      "Ġtell": 2198,
      "Ġactually": 2199,
      "Ġanimals": 2200,
      "eter": 2201,
      "plic": 2202,
      "ĠDep": 2203,
      "Ġpay": 2204,
      "Ġincreased": 2205,
      "Ġaddress": 2206,
      "Ġalmost": 2207,
      "ĠMan": 2208,
      "Ġtot": 2209,
      "Ġpressure": 2210,
      "enn": 2211,
      "reg": 2212,
      "oon": 2213,
      "Ġweek": 2214,
      "ĠEarth": 2215,
      "Ġfamil": 2216,
      "rect": 2217,
      "utions": 2218,
      "itud": 2219,
      "ĠRep": 2220,
      "ĠStud": 2221,
      "illed": 2222,
      "Ġrights": 2223,
      "sh": 2224,
      "itary": 2225,
      "ney": 2226,
      "go": 2227,
      "Ġeconomic": 2228,
      "ĠTr": 2229,
      "Ġrecomm": 2230,
      "epend": 2231,
      "Ġsize": 2232,
      "Ġclaim": 2233,
      "Ġsound": 2234,
      "Ġskin": 2235,
      "hib": 2236,
      "Ġpractice": 2237,
      "Ġstudent": 2238,
      "Ġidea": 2239,
      "Ġhalf": 2240,
      "Ġassociated": 2241,
      "Ġadult": 2242,
      "Ġcut": 2243,
      "ĠSy": 2244,
      "ma": 2245,
      "Ġarg": 2246,
      "Ġmaint": 2247,
      "ging": 2248,
      "aced": 2249,
      "Ch": 2250,
      "Ġentire": 2251,
      "Ġrequired": 2252,
      "ened": 2253,
      "ĠComp": 2254,
      "Ġblack": 2255,
      "Ġprovides": 2256,
      "artment": 2257,
      "ĠAct": 2258,
      "____": 2259,
      "Ġfri": 2260,
      "het": 2261,
      "Ġtook": 2262,
      "Ġmor": 2263,
      "sequ": 2264,
      ".)": 2265,
      "my": 2266,
      "ump": 2267,
      "Ġsimple": 2268,
      "aged": 2269,
      "org": 2270,
      "Ġskills": 2271,
      "Ġopportun": 2272,
      "light": 2273,
      "Ġcomplex": 2274,
      "Ġneeded": 2275,
      "Ġrelated": 2276,
      "ivity": 2277,
      "Ġsal": 2278,
      "Ġparts": 2279,
      "ulations": 2280,
      "Ġbegan": 2281,
      "Ġspe": 2282,
      "Ġmarket": 2283,
      "ibr": 2284,
      "Ġarch": 2285,
      "Ġpriv": 2286,
      "Ġsense": 2287,
      "Ġrelationship": 2288,
      "lying": 2289,
      "--": 2290,
      "Ġmicro": 2291,
      "Ġability": 2292,
      "Ġ13": 2293,
      "Ġsuper": 2294,
      "Ġcat": 2295,
      "Ġmoney": 2296,
      "Ġglobal": 2297,
      "pro": 2298,
      "Ġprote": 2299,
      "Ġfish": 2300,
      "Ġpurp": 2301,
      "Ġvers": 2302,
      "Ġport": 2303,
      "Ġunderstanding": 2304,
      "olic": 2305,
      "Ġquick": 2306,
      "Ġ196": 2307,
      "To": 2308,
      "Ġdog": 2309,
      "Ġexerc": 2310,
      "ĠJapan": 2311,
      "ĠHist": 2312,
      "erve": 2313,
      "Ġsepar": 2314,
      "oll": 2315,
      "ĠHis": 2316,
      "Ġever": 2317,
      "ores": 2318,
      "oses": 2319,
      "Ġeffective": 2320,
      "ĠGu": 2321,
      "mb": 2322,
      "cient": 2323,
      "Ġgreen": 2324,
      "Al": 2325,
      "Ġmonths": 2326,
      "ush": 2327,
      "Ġservices": 2328,
      "acks": 2329,
      "Ġapproach": 2330,
      "Ġarr": 2331,
      "Ġengine": 2332,
      "Ġlink": 2333,
      "Ġcoll": 2334,
      "ai": 2335,
      "eds": 2336,
      "rown": 2337,
      "urs": 2338,
      "Ġcondition": 2339,
      "Ġmaterials": 2340,
      "ply": 2341,
      "Ġstress": 2342,
      "Ġnecessary": 2343,
      "ening": 2344,
      "ĠCanad": 2345,
      "ĠState": 2346,
      "gest": 2347,
      "ĠX": 2348,
      "Ġexperien": 2349,
      "ĠBritish": 2350,
      "irm": 2351,
      "ript": 2352,
      "vere": 2353,
      "rad": 2354,
      "Ġansw": 2355,
      "oph": 2356,
      "empt": 2357,
      "Ġyet": 2358,
      "abit": 2359,
      "Ġavoid": 2360,
      "Ġmanagement": 2361,
      "Ġregion": 2362,
      "Ġthroughout": 2363,
      "Ġhealthy": 2364,
      "Ġstop": 2365,
      "Ġcomes": 2366,
      "Ġge": 2367,
      "ese": 2368,
      "Ġprinc": 2369,
      "utes": 2370,
      "Ġsuff": 2371,
      "Ġliter": 2372,
      "Ġfire": 2373,
      "Ġheat": 2374,
      "Ġemer": 2375,
      "Ġcop": 2376,
      "Ġhtt": 2377,
      "hold": 2378,
      "Ġreact": 2379,
      "Ġproduce": 2380,
      "ĠPr": 2381,
      "Ġcr": 2382,
      "inter": 2383,
      "bo": 2384,
      "Ġpath": 2385,
      "Ġ100": 2386,
      "uel": 2387,
      "Ġtherap": 2388,
      "Ġpopular": 2389,
      "rated": 2390,
      "estern": 2391,
      "Ġmedic": 2392,
      "Ġchemical": 2393,
      "Wh": 2394,
      "Ġparents": 2395,
      "aging": 2396,
      "Ġ|": 2397,
      "Ġregard": 2398,
      "Ġfactors": 2399,
      "erous": 2400,
      "Ġoil": 2401,
      "usion": 2402,
      "Ġstructure": 2403,
      "ederal": 2404,
      "iddle": 2405,
      "abor": 2406,
      "based": 2407,
      "Ġfarm": 2408,
      "Ġcomputer": 2409,
      "Ġ50": 2410,
      "ences": 2411,
      "ĠCont": 2412,
      "ume": 2413,
      "izing": 2414,
      "Ġprevious": 2415,
      "Ġanalysis": 2416,
      "yl": 2417,
      "Ġsix": 2418,
      "Ġincreasing": 2419,
      "Ġsoft": 2420,
      "Ġmedia": 2421,
      "ĠNe": 2422,
      "chan": 2423,
      "ections": 2424,
      "Ġsex": 2425,
      "ister": 2426,
      "Ġassess": 2427,
      "asc": 2428,
      "igure": 2429,
      "oes": 2430,
      "rate": 2431,
      "Ġrecent": 2432,
      "Ã©": 2433,
      "ĠCo": 2434,
      "ensive": 2435,
      "Ġreading": 2436,
      "Ġpersonal": 2437,
      "Ġservice": 2438,
      "Ġsurv": 2439,
      "Ġconduct": 2440,
      "ES": 2441,
      "ising": 2442,
      "Ġsociety": 2443,
      "Ġgas": 2444,
      "ccording": 2445,
      "pid": 2446,
      "uck": 2447,
      "Ġ25": 2448,
      "ĠAfter": 2449,
      "Ġprovided": 2450,
      "Ġpattern": 2451,
      "ĠAustral": 2452,
      "Ġshows": 2453,
      "ows": 2454,
      "Ġjob": 2455,
      "Ġtar": 2456,
      "Ġrepl": 2457,
      "Ġbuilt": 2458,
      "Ġut": 2459,
      "Ġbar": 2460,
      "iction": 2461,
      "Ġinteract": 2462,
      "Ġmeasure": 2463,
      "abet": 2464,
      "You": 2465,
      "Ġlonger": 2466,
      "Ġconc": 2467,
      "Ġmusic": 2468,
      "Ġoriginal": 2469,
      "Ġtaking": 2470,
      "ze": 2471,
      "ĠPe": 2472,
      "ĠII": 2473,
      "Ġcalc": 2474,
      "Ġsam": 2475,
      "Ġmatter": 2476,
      "minist": 2477,
      "Ġthing": 2478,
      "Ġhours": 2479,
      "Ġaction": 2480,
      "Ġheav": 2481,
      "Ġposition": 2482,
      "Ġast": 2483,
      "Ġtalk": 2484,
      "ched": 2485,
      "Ġwriting": 2486,
      "nces": 2487,
      "Ġaccept": 2488,
      "ĠEm": 2489,
      "lor": 2490,
      "Ġterms": 2491,
      "Ġla": 2492,
      "ronic": 2493,
      "Ġtrue": 2494,
      "ĠInstit": 2495,
      "Ġculture": 2496,
      "Ġbur": 2497,
      "ene": 2498,
      "wh": 2499,
      "order": 2500,
      "Ġcolor": 2501,
      "istance": 2502,
      "Ġcaused": 2503,
      "hood": 2504,
      "Ġindividuals": 2505,
      "Ġrev": 2506,
      "Ġtravel": 2507,
      "fully": 2508,
      "Ġindustry": 2509,
      "Ġdeb": 2510,
      "dom": 2511,
      "lands": 2512,
      "Ġetc": 2513,
      "mon": 2514,
      "ĠJew": 2515,
      "Ġtotal": 2516,
      "inary": 2517,
      "Ġ11": 2518,
      "ucle": 2519,
      "rought": 2520,
      "Ġbring": 2521,
      "yle": 2522,
      "Ġple": 2523,
      "Ġexperim": 2524,
      "aily": 2525,
      "onse": 2526,
      "Ġtraining": 2527,
      "Ġce": 2528,
      "reng": 2529,
      "Ġenvironmental": 2530,
      "Ġbehavior": 2531,
      "ns": 2532,
      "Ġmeaning": 2533,
      "Ġschools": 2534,
      "adem": 2535,
      "Ġonline": 2536,
      "ĠPres": 2537,
      "aries": 2538,
      "Ġbreak": 2539,
      "vey": 2540,
      "Ġtemperature": 2541,
      "ĠKing": 2542,
      "Ġshown": 2543,
      "Ġcontact": 2544,
      "Ġearth": 2545,
      "Ġsoil": 2546,
      "Ġpage": 2547,
      "ĠResearch": 2548,
      "uge": 2549,
      "Ġscientists": 2550,
      "Ġslow": 2551,
      "Ġcontent": 2552,
      "Ġincludes": 2553,
      "umb": 2554,
      "Ġlove": 2555,
      "rench": 2556,
      "Ġsleep": 2557,
      "lt": 2558,
      "Ġthreat": 2559,
      "Ġcheck": 2560,
      "Ġexc": 2561,
      "Ġsafe": 2562,
      "Ġlives": 2563,
      "Ġrelative": 2564,
      "Ġsometimes": 2565,
      "Ġcontain": 2566,
      "ĠWhile": 2567,
      "Ġaverage": 2568,
      "Ġsat": 2569,
      "icles": 2570,
      "Ġeat": 2571,
      "ricult": 2572,
      "Ġfeed": 2573,
      "Ġdesigned": 2574,
      "Ġspread": 2575,
      "Ġviol": 2576,
      "Ġprograms": 2577,
      "eration": 2578,
      "anced": 2579,
      "aff": 2580,
      "Ġinj": 2581,
      "ĠNo": 2582,
      "imately": 2583,
      "Ġdiagn": 2584,
      "osition": 2585,
      "lex": 2586,
      "atives": 2587,
      "Ġemb": 2588,
      "Ġsimply": 2589,
      "Ġled": 2590,
      "Ġeasy": 2591,
      "ĠJes": 2592,
      "Ġcompany": 2593,
      "aving": 2594,
      "Ġstandard": 2595,
      "Ġ194": 2596,
      "amed": 2597,
      "ius": 2598,
      "arily": 2599,
      "ĠPar": 2600,
      "ades": 2601,
      "Ġmethods": 2602,
      "Ġbenefits": 2603,
      "Ġvari": 2604,
      "Ġwritten": 2605,
      "Ġvariety": 2606,
      "Ġbelieve": 2607,
      "duc": 2608,
      "Ġlif": 2609,
      "Ġgreater": 2610,
      "Ġcauses": 2611,
      "ĠSu": 2612,
      "ĠMin": 2613,
      "Ġmovement": 2614,
      "Ġwild": 2615,
      "Ġpositive": 2616,
      "ropri": 2617,
      "Ġnormal": 2618,
      "aches": 2619,
      "gar": 2620,
      "Ġpict": 2621,
      "itation": 2622,
      "ĠPer": 2623,
      "ĠSchool": 2624,
      "Ġrespect": 2625,
      "rior": 2626,
      "Ġfru": 2627,
      "ĠSec": 2628,
      "rie": 2629,
      "Ġreported": 2630,
      "Ġsubst": 2631,
      "new": 2632,
      "Ġlate": 2633,
      "Ġorigin": 2634,
      "Ġregular": 2635,
      "Ġissue": 2636,
      "ervation": 2637,
      "Ġcompan": 2638,
      "ief": 2639,
      "But": 2640,
      "Ġdeep": 2641,
      "Ġvide": 2642,
      "Ġinvolved": 2643,
      "bor": 2644,
      "ls": 2645,
      "astic": 2646,
      "rand": 2647,
      "ID": 2648,
      "Ġforms": 2649,
      "istics": 2650,
      "Ġuses": 2651,
      "Ġtarget": 2652,
      "lies": 2653,
      "Ġprec": 2654,
      "AT": 2655,
      "ulate": 2656,
      "Ġcamp": 2657,
      "Ġattempt": 2658,
      "Ġstreng": 2659,
      "Ġreview": 2660,
      "oor": 2661,
      "Ġimage": 2662,
      "ops": 2663,
      "aling": 2664,
      "ĠÂ": 2665,
      "Ġfem": 2666,
      "ington": 2667,
      "ĠJu": 2668,
      "Ġclean": 2669,
      "know": 2670,
      "rast": 2671,
      "Ġsqu": 2672,
      "Ġevents": 2673,
      "Ġste": 2674,
      "Ġdemon": 2675,
      "imum": 2676,
      "Ġap": 2677,
      "Ġshare": 2678,
      "Ġencoura": 2679,
      "Ġpsych": 2680,
      "Ġdoing": 2681,
      "Ġnight": 2682,
      "ĠEd": 2683,
      "Ġtax": 2684,
      "Ġmach": 2685,
      "Ġoutside": 2686,
      "Ġparticularly": 2687,
      "Ġsources": 2688,
      "ĠCount": 2689,
      "Ġrefer": 2690,
      "Ġbasic": 2691,
      "ana": 2692,
      "Ġnetwork": 2693,
      "Ġ/": 2694,
      "ribution": 2695,
      "Ġvisit": 2696,
      "ender": 2697,
      "Ġdraw": 2698,
      "uary": 2699,
      "Ġgenerally": 2700,
      "ĠScience": 2701,
      "Ġinternational": 2702,
      "Ġbacter": 2703,
      "Ġextreme": 2704,
      "Ġsafety": 2705,
      "Ġimplement": 2706,
      "Ġbr": 2707,
      "Ġlog": 2708,
      "Ġlat": 2709,
      "Ġidentify": 2710,
      "Ġideas": 2711,
      "Ġdamage": 2712,
      "Ġlack": 2713,
      "ials": 2714,
      "ners": 2715,
      "verse": 2716,
      "ĠRuss": 2717,
      "Ġago": 2718,
      "Ġpoll": 2719,
      "Ġpoor": 2720,
      "hest": 2721,
      "ĠWill": 2722,
      "ufact": 2723,
      "ĠChina": 2724,
      "Ġaff": 2725,
      "Ġseries": 2726,
      "ĠJan": 2727,
      "Ġremov": 2728,
      "amb": 2729,
      "ĠCenter": 2730,
      "Ġproduced": 2731,
      "Ġgrowing": 2732,
      "Ġ--": 2733,
      "Ġserious": 2734,
      "Ġmechan": 2735,
      "ached": 2736,
      "Ġteachers": 2737,
      "Ġfoods": 2738,
      "On": 2739,
      "Ġface": 2740,
      "ror": 2741,
      "ises": 2742,
      "ulated": 2743,
      "Ġcarbon": 2744,
      "Ġprobably": 2745,
      "Ġharm": 2746,
      "oly": 2747,
      "Ġforce": 2748,
      "ength": 2749,
      "ĠPart": 2750,
      "Ġattention": 2751,
      "22": 2752,
      "Ġsou": 2753,
      "Ġcoun": 2754,
      "isions": 2755,
      "Ġinteg": 2756,
      "uth": 2757,
      "Ġdeveloping": 2758,
      "Ġhelps": 2759,
      "ided": 2760,
      "cies": 2761,
      "Ġcross": 2762,
      "Ġconsist": 2763,
      "oles": 2764,
      "Ġcivil": 2765,
      "Ġcompet": 2766,
      "ĠHar": 2767,
      "inks": 2768,
      "Ġdou": 2769,
      "Ġfa": 2770,
      "Ġresponse": 2771,
      "Ġtheory": 2772,
      "vention": 2773,
      "Ġindepend": 2774,
      "Ġforest": 2775,
      "ĠAug": 2776,
      "Ġexpress": 2777,
      "Ġnumbers": 2778,
      "itude": 2779,
      "Ġcommit": 2780,
      "ban": 2781,
      "Ġsea": 2782,
      "erg": 2783,
      "Ġcust": 2784,
      "ctions": 2785,
      "Ġcolon": 2786,
      "Ġcit": 2787,
      "Ġcontinue": 2788,
      "Ġmother": 2789,
      "Ġmess": 2790,
      "elling": 2791,
      "Ġelectric": 2792,
      "Ġprep": 2793,
      "cil": 2794,
      "Ġtown": 2795,
      "where": 2796,
      "haps": 2797,
      "Ġselect": 2798,
      "ĠFrench": 2799,
      "Ġwall": 2800,
      "Ġensure": 2801,
      "ecause": 2802,
      "ĠGerman": 2803,
      "Ġattack": 2804,
      "Ġdefin": 2805,
      "overy": 2806,
      "iforn": 2807,
      "25": 2808,
      "ming": 2809,
      "Ġfeet": 2810,
      "Ġbirth": 2811,
      "rs": 2812,
      "osure": 2813,
      "Ġthus": 2814,
      "Ġinstead": 2815,
      "Ġestablished": 2816,
      "ĠQu": 2817,
      "Ġconcent": 2818,
      "Ġ24": 2819,
      "abetes": 2820,
      "Ġkids": 2821,
      "useum": 2822,
      "ground": 2823,
      "Ġbooks": 2824,
      "ĠBo": 2825,
      "Ġanimal": 2826,
      "osing": 2827,
      "Ġspir": 2828,
      "Ġincluded": 2829,
      "ĠIndia": 2830,
      "AR": 2831,
      "Ġwood": 2832,
      "raft": 2833,
      "Ġwebs": 2834,
      "Ġtherefore": 2835,
      "ties": 2836,
      "Ġgetting": 2837,
      "Ġir": 2838,
      "Ġbal": 2839,
      "ille": 2840,
      "Ġcompon": 2841,
      "Ġscientific": 2842,
      "ights": 2843,
      "Ġemot": 2844,
      "ĠMany": 2845,
      "Ġmilitary": 2846,
      "Ġtakes": 2847,
      "room": 2848,
      "Ġaware": 2849,
      "ying": 2850,
      "Ġsust": 2851,
      "Ġinstit": 2852,
      "Ġestim": 2853,
      "Ġpolicy": 2854,
      "Ġ2012": 2855,
      "Ġveget": 2856,
      "Ġvirus": 2857,
      "ĠMe": 2858,
      "Ġheld": 2859,
      "Ġfront": 2860,
      "Ġinvestig": 2861,
      "ads": 2862,
      "alu": 2863,
      "ĠMore": 2864,
      "ĠAc": 2865,
      "Ġec": 2866,
      "Ġdang": 2867,
      "rew": 2868,
      "ĠCons": 2869,
      "Ġthird": 2870,
      "ĠDepartment": 2871,
      "Ġdoesn": 2872,
      "cell": 2873,
      "Ġtree": 2874,
      "Ġdaily": 2875,
      "Ġsecurity": 2876,
      "ĠEuropean": 2877,
      "erson": 2878,
      "asons": 2879,
      "Ġdiv": 2880,
      "Ġful": 2881,
      "Ġpoints": 2882,
      "hel": 2883,
      "Ġwarm": 2884,
      "fect": 2885,
      "ĠInstitute": 2886,
      "Ġcover": 2887,
      "ifornia": 2888,
      "Ġlooking": 2889,
      "Ġsomeone": 2890,
      "ems": 2891,
      "Ġchalleng": 2892,
      "Ġvit": 2893,
      "Ġdispl": 2894,
      "IN": 2895,
      "son": 2896,
      "Ġ2010": 2897,
      "Ġsolar": 2898,
      "Ġleaders": 2899,
      "Ġstarted": 2900,
      "ĠInt": 2901,
      "pril": 2902,
      "ON": 2903,
      "Ġhyd": 2904,
      "Ġmental": 2905,
      "Ġprimary": 2906,
      "Ġox": 2907,
      "Ġreflect": 2908,
      "Ġseems": 2909,
      "Ġadded": 2910,
      "Ġdocument": 2911,
      "ĠOct": 2912,
      "Ġquite": 2913,
      "Ġthous": 2914,
      "ext": 2915,
      "Ġfav": 2916,
      "ceed": 2917,
      "na": 2918,
      "Ġfamilies": 2919,
      "issions": 2920,
      "ĠFran": 2921,
      "iot": 2922,
      "hern": 2923,
      "ĠApp": 2924,
      "Ġbab": 2925,
      "Ġimmedi": 2926,
      "Ġcorrect": 2927,
      "Ġprint": 2928,
      "set": 2929,
      "ĠJune": 2930,
      "Ġdetermine": 2931,
      "Ġdifference": 2932,
      "inese": 2933,
      "ĠMarch": 2934,
      "ĠDo": 2935,
      "Ġpatient": 2936,
      "Ġalthough": 2937,
      "uman": 2938,
      "Ġ40": 2939,
      "ĠEduc": 2940,
      "Ġmagn": 2941,
      "undred": 2942,
      "Ġhumans": 2943,
      "ension": 2944,
      "Ġlabor": 2945,
      "thern": 2946,
      "ha": 2947,
      "Ġspeed": 2948,
      "ilos": 2949,
      "ography": 2950,
      "IS": 2951,
      "Ġtraditional": 2952,
      "ĠAg": 2953,
      "elt": 2954,
      "ĠMost": 2955,
      "Ġtur": 2956,
      "Ġcompared": 2957,
      "Ġsold": 2958,
      "ridge": 2959,
      "Ġmanufact": 2960,
      "ĠChristian": 2961,
      "Ġdoctor": 2962,
      "Ġinside": 2963,
      "Ġperformance": 2964,
      "Ġessential": 2965,
      "gency": 2966,
      "Ġeasily": 2967,
      "ino": 2968,
      "âĢ¢": 2969,
      "Ġreve": 2970,
      "ounds": 2971,
      "Ġtrees": 2972,
      "www": 2973,
      "lied": 2974,
      "ift": 2975,
      "Ġcapt": 2976,
      "Ġcompanies": 2977,
      "Ġappropri": 2978,
      "coh": 2979,
      "ĠRet": 2980,
      "Ġeye": 2981,
      "Ġunique": 2982,
      "Ġcommunities": 2983,
      "ĠArt": 2984,
      "Ġadditional": 2985,
      "iency": 2986,
      "Ġallows": 2987,
      "ellow": 2988,
      "Ġtri": 2989,
      "ĠInternational": 2990,
      "Ġwhose": 2991,
      "Ġdirectly": 2992,
      "den": 2993,
      "ancy": 2994,
      "Ġnation": 2995,
      "ĠEl": 2996,
      "Ġlarger": 2997,
      "Ġdiseases": 2998,
      "iter": 2999,
      "ĠChar": 3000,
      "AN": 3001,
      "Ġ2011": 3002,
      "cean": 3003,
      "ĠCalifornia": 3004,
      "Ġspeak": 3005,
      "Ġbeginning": 3006,
      "Ġprogress": 3007,
      "ĠIndian": 3008,
      "olec": 3009,
      "Ġtools": 3010,
      "Ġnegative": 3011,
      "Ġhot": 3012,
      "Ġaud": 3013,
      "Ġdecre": 3014,
      "Ġwent": 3015,
      "Ġ2009": 3016,
      "rig": 3017,
      "Ġnucle": 3018,
      "Ġachieve": 3019,
      "Ġsus": 3020,
      "Ġbit": 3021,
      "Ġbehind": 3022,
      "ĠPre": 3023,
      "Ġoffer": 3024,
      "Ġthinking": 3025,
      "Ġhabit": 3026,
      "Ġwalk": 3027,
      "Ġrout": 3028,
      "orthern": 3029,
      "Ġdemonstr": 3030,
      "orks": 3031,
      "Ġdry": 3032,
      "Ġcapital": 3033,
      "Ġdrink": 3034,
      "Ġquickly": 3035,
      "uries": 3036,
      "yond": 3037,
      "21": 3038,
      "Ġstri": 3039,
      "omet": 3040,
      "Ġhttp": 3041,
      "Ġx": 3042,
      "Ġactive": 3043,
      "Ġtiss": 3044,
      "Ġhighly": 3045,
      "Ġelements": 3046,
      "One": 3047,
      "rition": 3048,
      "Ġfoot": 3049,
      "leb": 3050,
      "ĠSept": 3051,
      "Ġleading": 3052,
      "oke": 3053,
      "Ġextra": 3054,
      "ĠAnt": 3055,
      "ĠJuly": 3056,
      "Ġmultiple": 3057,
      "Ġaspect": 3058,
      "joy": 3059,
      "Ġaltern": 3060,
      "Ġaim": 3061,
      "ancial": 3062,
      "Ġcentral": 3063,
      "Ġprotein": 3064,
      "Ġexercise": 3065,
      "He": 3066,
      "Ġmount": 3067,
      "ĠWest": 3068,
      "olar": 3069,
      "formation": 3070,
      "Ġtend": 3071,
      "oming": 3072,
      "Ġsoon": 3073,
      "Ġhost": 3074,
      "Ġnorth": 3075,
      "ĠGree": 3076,
      "OR": 3077,
      "Ġbroad": 3078,
      "rance": 3079,
      "Ġfram": 3080,
      "ĠGl": 3081,
      "Ġsevere": 3082,
      "ĠChinese": 3083,
      "mar": 3084,
      "Ġancient": 3085,
      "ĠJesus": 3086,
      "ĠCor": 3087,
      "eks": 3088,
      "Ġinfection": 3089,
      "Ġsupply": 3090,
      "ĠHer": 3091,
      "lation": 3092,
      "IC": 3093,
      "Ġacid": 3094,
      "Ġcritical": 3095,
      "Ġi": 3096,
      "ĠRec": 3097,
      "aly": 3098,
      "Ġevalu": 3099,
      "Ġreceived": 3100,
      "Ġbad": 3101,
      "gn": 3102,
      "term": 3103,
      "Ġcontains": 3104,
      "Ġprior": 3105,
      "ĠSm": 3106,
      "Ġvalues": 3107,
      "Ġdescribed": 3108,
      "Ġlost": 3109,
      "ĠOther": 3110,
      "hens": 3111,
      "ĠAugust": 3112,
      "Ġcred": 3113,
      "Ġanswer": 3114,
      "Ġlimited": 3115,
      "ĠMus": 3116,
      "Ġinterp": 3117,
      "Ġsection": 3118,
      "Ġhor": 3119,
      "Ġbrought": 3120,
      "23": 3121,
      "Ġgard": 3122,
      "ĠDav": 3123,
      "So": 3124,
      "ĠHistory": 3125,
      "Ġdecl": 3126,
      "Ġwrite": 3127,
      "Ġproced": 3128,
      "ĠPress": 3129,
      "Ġelse": 3130,
      "ching": 3131,
      "Ġprotection": 3132,
      "Ġreligious": 3133,
      "ription": 3134,
      "Ġjud": 3135,
      "Ġsil": 3136,
      "Ġprivate": 3137,
      "iers": 3138,
      "uk": 3139,
      "ĠAfrican": 3140,
      "Ġclin": 3141,
      "itect": 3142,
      "rote": 3143,
      "ĠApril": 3144,
      "Ġcapac": 3145,
      "Ġhundred": 3146,
      "eal": 3147,
      "ields": 3148,
      "Ġdecision": 3149,
      "ĠBar": 3150,
      "isms": 3151,
      "lection": 3152,
      "ĠYour": 3153,
      "ĠAlthough": 3154,
      "Ġeth": 3155,
      "lier": 3156,
      "Ġinn": 3157,
      "Ġexpect": 3158,
      "Ġhar": 3159,
      "Ġsearch": 3160,
      "Ġcard": 3161,
      "Ġworkers": 3162,
      "iques": 3163,
      "Ġpurpose": 3164,
      "Ġtowards": 3165,
      "Ġmom": 3166,
      "ĠNot": 3167,
      "ovember": 3168,
      "Ġdark": 3169,
      "Ġadminist": 3170,
      "oring": 3171,
      "Ġones": 3172,
      "pe": 3173,
      "lim": 3174,
      "Ġbase": 3175,
      "Ġcontribut": 3176,
      "Ġremains": 3177,
      "ĠEngland": 3178,
      "Ġfast": 3179,
      "cohol": 3180,
      "ĠChild": 3181,
      "Ġagree": 3182,
      "used": 3183,
      "ĠAfrica": 3184,
      "att": 3185,
      "istry": 3186,
      "Ġuseful": 3187,
      "Ġnews": 3188,
      "Ġobjects": 3189,
      "Ġanaly": 3190,
      "vant": 3191,
      "ĠTra": 3192,
      "anks": 3193,
      "Ġnearly": 3194,
      "rogen": 3195,
      "orders": 3196,
      "Ġapplication": 3197,
      "Ġtransport": 3198,
      "ĠSch": 3199,
      "Ġminutes": 3200,
      "Ġproperty": 3201,
      "Ġlines": 3202,
      "Ġobt": 3203,
      "40": 3204,
      "ondon": 3205,
      "'re": 3206,
      "ĠGovern": 3207,
      "cks": 3208,
      "see": 3209,
      "Ġgot": 3210,
      "Ġstay": 3211,
      "Ġvideo": 3212,
      "Ġnar": 3213,
      "co": 3214,
      "Ġinfluence": 3215,
      "Ġord": 3216,
      "inct": 3217,
      "lin": 3218,
      "arian": 3219,
      "omb": 3220,
      "ster": 3221,
      "Ġhous": 3222,
      "Ġadop": 3223,
      "And": 3224,
      "edia": 3225,
      "Ġteaching": 3226,
      "Ġjo": 3227,
      "Ġestablish": 3228,
      "wise": 3229,
      "mission": 3230,
      "Ġlargest": 3231,
      "80": 3232,
      "Ġstrateg": 3233,
      "Ġsoftware": 3234,
      "âĢĿ.": 3235,
      "ĠWash": 3236,
      "ĠTw": 3237,
      "Ġexact": 3238,
      "Ġlaws": 3239,
      "Ġremain": 3240,
      "ĠMon": 3241,
      "Ġenjoy": 3242,
      "cember": 3243,
      "Ġadults": 3244,
      "Ġseason": 3245,
      "Ġstra": 3246,
      "Ġcustom": 3247,
      "ĠPresident": 3248,
      "bit": 3249,
      "bol": 3250,
      "come": 3251,
      "Ġrates": 3252,
      "Ġ,": 3253,
      "sect": 3254,
      "Ġfederal": 3255,
      "Ġplaces": 3256,
      "Ġrare": 3257,
      "ĠOf": 3258,
      "Ġmill": 3259,
      "Ġaccur": 3260,
      "Ġlocated": 3261,
      "60": 3262,
      "Ġpack": 3263,
      "Ġfight": 3264,
      "Ġleaves": 3265,
      "Ġsouth": 3266,
      "Ġgame": 3267,
      "Ġhands": 3268,
      "Ġsn": 3269,
      "uous": 3270,
      "Ġlength": 3271,
      "ologies": 3272,
      "estic": 3273,
      "Ġweeks": 3274,
      "Ġsituation": 3275,
      "Ġbasis": 3276,
      "life": 3277,
      "Ġimag": 3278,
      "izations": 3279,
      "ira": 3280,
      "Ġbeaut": 3281,
      "aid": 3282,
      "Ġtold": 3283,
      "ĠCanada": 3284,
      "Ġexcept": 3285,
      "Ġquant": 3286,
      "Ġborn": 3287,
      "Ġfeatures": 3288,
      "Ġcarry": 3289,
      "IV": 3290,
      "Ġ21": 3291,
      "fort": 3292,
      "alled": 3293,
      "ĠSw": 3294,
      "Ġgoal": 3295,
      "Ġder": 3296,
      "Ġbecomes": 3297,
      "ĠReg": 3298,
      "anish": 3299,
      "ĠKe": 3300,
      "Ġhimself": 3301,
      "Ġ2008": 3302,
      "Ġep": 3303,
      "iber": 3304,
      "Ġmiles": 3305,
      "Ġdisp": 3306,
      "rael": 3307,
      "Ġbott": 3308,
      "ĠServ": 3309,
      "entially": 3310,
      "ĠMy": 3311,
      "Ġtests": 3312,
      "omy": 3313,
      "pper": 3314,
      "Ġdied": 3315,
      "ĠUs": 3316,
      "Ġimages": 3317,
      "Ġblock": 3318,
      "EN": 3319,
      "Ġeyes": 3320,
      "aul": 3321,
      "ĠFirst": 3322,
      "Ġreach": 3323,
      "rag": 3324,
      "ĠHere": 3325,
      "Ġfather": 3326,
      "Ġcoast": 3327,
      "alt": 3328,
      "Ġdead": 3329,
      "Ġcou": 3330,
      "Ġcommand": 3331,
      "iece": 3332,
      "ĠProg": 3333,
      "odies": 3334,
      "Ġvict": 3335,
      "Ġsummer": 3336,
      "Ġking": 3337,
      "Ġagricult": 3338,
      "iles": 3339,
      "Ġcitiz": 3340,
      "equ": 3341,
      "Ġefforts": 3342,
      "idents": 3343,
      "Ġang": 3344,
      "Ġsurround": 3345,
      "Ġcenter": 3346,
      "ĠAssoci": 3347,
      "Ġrequires": 3348,
      "iar": 3349,
      "atur": 3350,
      "Ġstru": 3351,
      "Ġshall": 3352,
      "Ġvacc": 3353,
      "ĠOctober": 3354,
      "ĠMc": 3355,
      "ĠCong": 3356,
      "Ġcool": 3357,
      "Ġtrade": 3358,
      "itis": 3359,
      "Ġconstit": 3360,
      "Ġdevices": 3361,
      "vest": 3362,
      "ibrary": 3363,
      "gypt": 3364,
      "Ġimportance": 3365,
      "Ġrapid": 3366,
      "Ġsolution": 3367,
      "sec": 3368,
      "Ġwa": 3369,
      "Ġmention": 3370,
      "199": 3371,
      "Ġwaste": 3372,
      "Ġcam": 3373,
      "Ġdemand": 3374,
      "Ġsaw": 3375,
      "uments": 3376,
      "Ġsites": 3377,
      "Ġmid": 3378,
      "Ġeverything": 3379,
      "Ġnothing": 3380,
      "Ġcommunication": 3381,
      "Ġbul": 3382,
      "Ġsustain": 3383,
      "Ġfit": 3384,
      "Ġcosts": 3385,
      "year": 3386,
      "inate": 3387,
      "rieved": 3388,
      "ĠArch": 3389,
      "ĠRiver": 3390,
      "Ġegg": 3391,
      "Ġspirit": 3392,
      "24": 3393,
      "oud": 3394,
      "Ġlegal": 3395,
      "cles": 3396,
      "Ġresponsible": 3397,
      "Ġice": 3398,
      "Ġmonitor": 3399,
      "At": 3400,
      "Ġrespond": 3401,
      "ĠJanuary": 3402,
      "Ġtit": 3403,
      "Ġeating": 3404,
      "Ġ2013": 3405,
      "ĠWilliam": 3406,
      "inated": 3407,
      "Ġult": 3408,
      "resh": 3409,
      "Ġbacteria": 3410,
      "Ġdevice": 3411,
      "Ġdiabetes": 3412,
      "Ġtable": 3413,
      "ĠCO": 3414,
      "Ġfile": 3415,
      "Ġbeyond": 3416,
      "ĠSeptember": 3417,
      "ĠNovember": 3418,
      "ding": 3419,
      "ĠPol": 3420,
      "Ġforces": 3421,
      "Ġ2007": 3422,
      "IT": 3423,
      "Ġcontroll": 3424,
      "Ġfinancial": 3425,
      "Ġrecently": 3426,
      "Ġmemory": 3427,
      "Ġconstruction": 3428,
      "Ġappropriate": 3429,
      ");": 3430,
      "Ġanything": 3431,
      "uit": 3432,
      "Ġson": 3433,
      "Ġtesting": 3434,
      "ĠWashington": 3435,
      "lam": 3436,
      "ĠCity": 3437,
      "Ġpan": 3438,
      "Ġexamples": 3439,
      "ony": 3440,
      "ĠAmericans": 3441,
      "ipment": 3442,
      "water": 3443,
      "Ġadj": 3444,
      "ype": 3445,
      "ĠEducation": 3446,
      "med": 3447,
      "Ġtypically": 3448,
      "Ġbenefit": 3449,
      "ica": 3450,
      "ĠCounty": 3451,
      "ĠFrom": 3452,
      "Ġfinal": 3453,
      "Ġgives": 3454,
      "Ġ193": 3455,
      "king": 3456,
      "Ġmis": 3457,
      "ixed": 3458,
      "Ġteacher": 3459,
      "Ġcreating": 3460,
      "Ġprojects": 3461,
      "Ġcommunic": 3462,
      "Ġanti": 3463,
      "aught": 3464,
      "Ġhope": 3465,
      "ĠJournal": 3466,
      "Ġcrop": 3467,
      "rab": 3468,
      "Ġasked": 3469,
      "Ġtechniques": 3470,
      "Ġneigh": 3471,
      "Ġwebsite": 3472,
      "edom": 3473,
      "apter": 3474,
      "Ġfollowed": 3475,
      "By": 3476,
      "Ġformer": 3477,
      "Ġtherapy": 3478,
      "Ġcontinued": 3479,
      "Ġsett": 3480,
      "ama": 3481,
      "Ġsugar": 3482,
      "ford": 3483,
      "AS": 3484,
      "Ġapplications": 3485,
      "ĠSan": 3486,
      "Ġguid": 3487,
      "ĠLondon": 3488,
      "head": 3489,
      "ĠDay": 3490,
      "ĠGreat": 3491,
      "Ġcultural": 3492,
      "Ġeconomy": 3493,
      "Ġten": 3494,
      "Ġmiddle": 3495,
      "Ġwrote": 3496,
      "ĠDecember": 3497,
      "ipl": 3498,
      "Ġprocesses": 3499,
      "izes": 3500,
      "Ġgradu": 3501,
      "ĠFeb": 3502,
      "ham": 3503,
      "Ġund": 3504,
      "ky": 3505,
      "Ġeffort": 3506,
      "ios": 3507,
      "ĠSociety": 3508,
      "Ġceleb": 3509,
      "Ġadapt": 3510,
      "Ġautom": 3511,
      "ests": 3512,
      "Ġexpected": 3513,
      "ĠIsrael": 3514,
      "Ġreasons": 3515,
      "Ġveh": 3516,
      "enge": 3517,
      "ĠRoman": 3518,
      "Ġdepend": 3519,
      "back": 3520,
      "imal": 3521,
      "Ġfriends": 3522,
      "These": 3523,
      "Ġsuccessful": 3524,
      "Ġolder": 3525,
      "Ġfuel": 3526,
      "Ġpractices": 3527,
      "Ġdate": 3528,
      "Ġunc": 3529,
      "Ġcold": 3530,
      "Ġpen": 3531,
      "Ġrules": 3532,
      "Ġbillion": 3533,
      "Ġhyp": 3534,
      "ĠPark": 3535,
      "Ġinsp": 3536,
      "ev": 3537,
      "rees": 3538,
      "mosp": 3539,
      "Ġmolec": 3540,
      "ĠIS": 3541,
      "ĠDNA": 3542,
      "Ġcompletely": 3543,
      "PA": 3544,
      "iples": 3545,
      "Ġchoose": 3546,
      "Ġrain": 3547,
      "Ġcourt": 3548,
      "illing": 3549,
      "ĠEgypt": 3550,
      "Ġweb": 3551,
      "ocol": 3552,
      "Ġpregn": 3553,
      "ought": 3554,
      "Ġbeg": 3555,
      "Ġsmaller": 3556,
      "Ġnamed": 3557,
      "Ġstage": 3558,
      "Ġadvant": 3559,
      "Ġmodels": 3560,
      "Ġproviding": 3561,
      "aur": 3562,
      "Ġpet": 3563,
      "Ġfear": 3564,
      "ĠEven": 3565,
      "airs": 3566,
      "Ġ23": 3567,
      "Ġlocation": 3568,
      "Ġapprox": 3569,
      "Ġgenetic": 3570,
      "strial": 3571,
      "Ġtrying": 3572,
      "Ġdiscovered": 3573,
      "Ġeight": 3574,
      "ogen": 3575,
      "ĠDevelop": 3576,
      "Ġreceive": 3577,
      "ĠChurch": 3578,
      "Ġwoman": 3579,
      "oe": 3580,
      "Ġgoes": 3581,
      "ĠLaw": 3582,
      "EC": 3583,
      "Ġinteresting": 3584,
      "Ġinstru": 3585,
      "Ġcurrently": 3586,
      "Ġplanet": 3587,
      "Ġaffected": 3588,
      "udd": 3589,
      "Ġuser": 3590,
      "Ġmaintain": 3591,
      "Ġscreen": 3592,
      "Ġelectr": 3593,
      "Ġallowed": 3594,
      "Ġalone": 3595,
      "Ġgir": 3596,
      "ĠVal": 3597,
      "Ġsch": 3598,
      "Ġdigital": 3599,
      "Ġconsequ": 3600,
      "Ġden": 3601,
      "aters": 3602,
      "urance": 3603,
      "oday": 3604,
      "Ġconflic": 3605,
      "book": 3606,
      "Ġdestro": 3607,
      "Ġbirds": 3608,
      "ĠRetrieved": 3609,
      "cial": 3610,
      "Ġdegree": 3611,
      "Ġeveryone": 3612,
      "ĠInc": 3613,
      "Ġ60": 3614,
      "ĠCoun": 3615,
      "ĠEast": 3616,
      "Ġ:": 3617,
      "Ġopportunity": 3618,
      "men": 3619,
      "off": 3620,
      "ĠAustralia": 3621,
      "ords": 3622,
      "ara": 3623,
      "ĠRed": 3624,
      "Ġcollection": 3625,
      "Ġcode": 3626,
      "Ġwinter": 3627,
      "ribute": 3628,
      "Ġorganization": 3629,
      "Ġplaced": 3630,
      "Ġmax": 3631,
      "ĠLear": 3632,
      "Ġshape": 3633,
      "Ġearlier": 3634,
      "ĠSystem": 3635,
      "mitted": 3636,
      "ĠAccording": 3637,
      "Ġvia": 3638,
      "ĠOur": 3639,
      "Ġmiss": 3640,
      "Ġconnect": 3641,
      "Ġmember": 3642,
      "With": 3643,
      "iable": 3644,
      "While": 3645,
      "Ġwon": 3646,
      "lamm": 3647,
      "Ġconstant": 3648,
      "vert": 3649,
      "ĠHigh": 3650,
      "ĠTechn": 3651,
      "Ġtou": 3652,
      "ED": 3653,
      "ĠDis": 3654,
      "Ġrise": 3655,
      "Ġbreat": 3656,
      "Ġyourself": 3657,
      "Ġrecommend": 3658,
      "Ġhon": 3659,
      "Ġstrength": 3660,
      "urg": 3661,
      "Ġsequ": 3662,
      "Ġscale": 3663,
      "Ġfair": 3664,
      "Ġleave": 3665,
      "can": 3666,
      "Ġvill": 3667,
      "Ġstandards": 3668,
      "Ġusers": 3669,
      "Ġphilos": 3670,
      "oration": 3671,
      "Ġexec": 3672,
      "Ġweather": 3673,
      "itable": 3674,
      "ibly": 3675,
      "Ex": 3676,
      "\",": 3677,
      "Ġoccurs": 3678,
      "Ġdrugs": 3679,
      "Ġpow": 3680,
      "Ġmeasures": 3681,
      "ĠGeneral": 3682,
      "ruary": 3683,
      "ĠGermany": 3684,
      "Ġapplied": 3685,
      "Ġrule": 3686,
      "ĠHouse": 3687,
      "hemat": 3688,
      "Pro": 3689,
      "Ġwond": 3690,
      "Ġ22": 3691,
      "Ġoccup": 3692,
      "Ġpredict": 3693,
      "Ġbehavi": 3694,
      "exic": 3695,
      "Ġhistorical": 3696,
      "70": 3697,
      "time": 3698,
      "ĠTrans": 3699,
      "ula": 3700,
      "ocr": 3701,
      "ĠVir": 3702,
      "ellig": 3703,
      "Ġroom": 3704,
      "iology": 3705,
      "Ġcoming": 3706,
      "que": 3707,
      "odes": 3708,
      "AL": 3709,
      "Ġteeth": 3710,
      "ĠSocial": 3711,
      "Ġpoly": 3712,
      "Ġformed": 3713,
      "ĠCommun": 3714,
      "Ġcorn": 3715,
      "orge": 3716,
      "uro": 3717,
      "ĠDuring": 3718,
      "Ġteach": 3719,
      "Ġpurch": 3720,
      "Ġcateg": 3721,
      "Ġgave": 3722,
      "Ġdeal": 3723,
      "Ġvisual": 3724,
      "Ġdidn": 3725,
      "ingu": 3726,
      "Ġperhaps": 3727,
      "encies": 3728,
      "iful": 3729,
      "Ġalcohol": 3730,
      "Ġequipment": 3731,
      "Ġcommerc": 3732,
      "Ġcommonly": 3733,
      "Ġmajority": 3734,
      "Ġoverall": 3735,
      "Ġnote": 3736,
      "ĠThen": 3737,
      "Ġworked": 3738,
      "Ġcru": 3739,
      "Ġgold": 3740,
      "rec": 3741,
      "Ġrich": 3742,
      "Ġperfect": 3743,
      "Ġisn": 3744,
      "irection": 3745,
      "Ġfruit": 3746,
      "AC": 3747,
      "cont": 3748,
      "load": 3749,
      "uff": 3750,
      "Ġpeace": 3751,
      "Ġillness": 3752,
      "Ġillust": 3753,
      "Ġrock": 3754,
      "reet": 3755,
      "oted": 3756,
      "ocks": 3757,
      "26": 3758,
      "Ġarchitect": 3759,
      "Ġstories": 3760,
      "ensity": 3761,
      "Ġswe": 3762,
      "aled": 3763,
      "Ġtox": 3764,
      "Ġcontext": 3765,
      "Ġpiece": 3766,
      "Ġassign": 3767,
      "Ġacqu": 3768,
      "itch": 3769,
      "Ġtrack": 3770,
      "Ġemp": 3771,
      "Ġenter": 3772,
      "phas": 3773,
      "ĠRead": 3774,
      "Ġvirt": 3775,
      "Ġversion": 3776,
      "Ġroad": 3777,
      "II": 3778,
      "enty": 3779,
      "Ġsect": 3780,
      "Ġstatus": 3781,
      "wide": 3782,
      "29": 3783,
      "Ġsteps": 3784,
      "Ġchoice": 3785,
      "Ġidentified": 3786,
      "ĠSim": 3787,
      "Ġshowed": 3788,
      "Ġreduced": 3789,
      "ĠAlso": 3790,
      "more": 3791,
      "ĠBecause": 3792,
      "Ġdifferences": 3793,
      "known": 3794,
      "bl": 3795,
      "iant": 3796,
      "unch": 3797,
      "Ġchurch": 3798,
      "Ġappears": 3799,
      "Ġrelatively": 3800,
      "Ġcook": 3801,
      "Ġfully": 3802,
      "Ġtele": 3803,
      "aint": 3804,
      "ospital": 3805,
      "Ġincreases": 3806,
      "Ġbreast": 3807,
      "Ġprofessional": 3808,
      "Some": 3809,
      "ĠFin": 3810,
      "ĠPat": 3811,
      "Ġexposure": 3812,
      "iate": 3813,
      "Ġpowerful": 3814,
      "ĠNow": 3815,
      "iences": 3816,
      "Ġrunning": 3817,
      "Ġunit": 3818,
      "Ġelement": 3819,
      "gery": 3820,
      "tery": 3821,
      "Ġgiving": 3822,
      "Ġwid": 3823,
      "uls": 3824,
      "ĠInst": 3825,
      "Ġmoving": 3826,
      "Ġdisplay": 3827,
      "Ġriver": 3828,
      "ĠSince": 3829,
      "ĠMod": 3830,
      "bre": 3831,
      "Ġmoment": 3832,
      "ĠWater": 3833,
      "Ġactions": 3834,
      "Ġexpand": 3835,
      "aign": 3836,
      "Ġsem": 3837,
      "Ġ28": 3838,
      "iny": 3839,
      "ĠUnion": 3840,
      "Ġcities": 3841,
      "Ġcompar": 3842,
      "Ġatmosp": 3843,
      "Ġremember": 3844,
      "Ġsymbol": 3845,
      "Ġattract": 3846,
      "ĠMexic": 3847,
      "resp": 3848,
      "Ġbaby": 3849,
      "Ġvision": 3850,
      "Ġacadem": 3851,
      "Ġ195": 3852,
      "force": 3853,
      "Ġmob": 3854,
      "Ġenh": 3855,
      "ees": 3856,
      "Ġrob": 3857,
      "ĠAng": 3858,
      "28": 3859,
      "rates": 3860,
      "Ġ26": 3861,
      "rief": 3862,
      "Ġbelief": 3863,
      "Ġmut": 3864,
      "Ġcontract": 3865,
      "Ġproperties": 3866,
      "Ġchanged": 3867,
      "rehens": 3868,
      "ĠUse": 3869,
      "Ġworth": 3870,
      "âĢĿ,": 3871,
      "Ġdat": 3872,
      "ĠProt": 3873,
      "Ġfigure": 3874,
      "Ġfert": 3875,
      "Ġevolution": 3876,
      "Ġlimit": 3877,
      "ĠPhil": 3878,
      "Ġcapacity": 3879,
      "ken": 3880,
      "aste": 3881,
      "ĠPeople": 3882,
      "Ġ2006": 3883,
      "ero": 3884,
      "ament": 3885,
      "Ġfactor": 3886,
      "cious": 3887,
      "yd": 3888,
      "Ġmission": 3889,
      "Ġefficient": 3890,
      "ĠMedic": 3891,
      "Ġcra": 3892,
      "Ġassist": 3893,
      "Ġexisting": 3894,
      "Ġconstruct": 3895,
      "Ġforeign": 3896,
      "rupt": 3897,
      "Ġcitizens": 3898,
      "ĠInternet": 3899,
      "Ġseparate": 3900,
      "Ġjoint": 3901,
      "house": 3902,
      "Ġmouth": 3903,
      "Ġpresence": 3904,
      "Ġblue": 3905,
      "Ġdistance": 3906,
      "Ġeducational": 3907,
      "Ġrepe": 3908,
      "Ġ2000": 3909,
      "Ġlearned": 3910,
      "related": 3911,
      "Ġstrugg": 3912,
      "ĠAre": 3913,
      "Ġnutri": 3914,
      "Ġrat": 3915,
      "ĠFl": 3916,
      "Ġpicture": 3917,
      "Ġinsect": 3918,
      "Ġstar": 3919,
      "Ġoffice": 3920,
      "omas": 3921,
      "HE": 3922,
      "osy": 3923,
      "pris": 3924,
      "pective": 3925,
      "27": 3926,
      "Ġmig": 3927,
      "Ġanx": 3928,
      "ĠJust": 3929,
      "Ġfemale": 3930,
      "Ġincor": 3931,
      "Ġsurvey": 3932,
      "Ġnames": 3933,
      "Ġball": 3934,
      "ĠCour": 3935,
      "Ġdefined": 3936,
      "Ġfamous": 3937,
      "Ġbound": 3938,
      "Ġtransfer": 3939,
      "eech": 3940,
      "Ġeventually": 3941,
      "semb": 3942,
      "ession": 3943,
      "Ġfresh": 3944,
      "Ġseven": 3945,
      "Ġjournal": 3946,
      "Un": 3947,
      "ĠRo": 3948,
      "ĠAssociation": 3949,
      "Ġfunctions": 3950,
      "Ġbelieved": 3951,
      "che": 3952,
      "ĠFebruary": 3953,
      "iance": 3954,
      "ĠProf": 3955,
      "lege": 3956,
      "Ġoffers": 3957,
      "Ġequal": 3958,
      "Ġdetails": 3959,
      "ald": 3960,
      "Ġconvers": 3961,
      "ĠJapanese": 3962,
      "Ġbank": 3963,
      "Ġpatterns": 3964,
      "ĠNA": 3965,
      "Ġinstance": 3966,
      "asion": 3967,
      "hors": 3968,
      "Ġ2015": 3969,
      "Ġsigns": 3970,
      "ĠTheir": 3971,
      "ĠCom": 3972,
      "iring": 3973,
      "ĠWestern": 3974,
      "ros": 3975,
      "Ġpassed": 3976,
      "Ġopportunities": 3977,
      "ĠSee": 3978,
      "Ġchance": 3979,
      "Ġ2016": 3980,
      "ĠUN": 3981,
      "ternal": 3982,
      "ĠConf": 3983,
      "Ġhuge": 3984,
      "ĠCouncil": 3985,
      "icip": 3986,
      "ste": 3987,
      "Ġfindings": 3988,
      "Ġpresident": 3989,
      "Ġthousands": 3990,
      "Ġgod": 3991,
      "Ġforward": 3992,
      "ĠDavid": 3993,
      "Ġsuggests": 3994,
      "Ġbra": 3995,
      "Ġmoved": 3996,
      "ographic": 3997,
      "Ġmachine": 3998,
      "Ġnuclear": 3999,
      "Ġnative": 4000,
      "Ġplans": 4001,
      "Ġtruth": 4002,
      "Ġclassroom": 4003,
      "ĠCongress": 4004,
      "Ġassum": 4005,
      "Ġtissue": 4006,
      "Ġdirection": 4007,
      "90": 4008,
      "They": 4009,
      "hetic": 4010,
      "ĠJewish": 4011,
      "part": 4012,
      "isation": 4013,
      "pped": 4014,
      "atin": 4015,
      "ĠPal": 4016,
      "Ġmal": 4017,
      "ologist": 4018,
      "mark": 4019,
      "Ġqual": 4020,
      "rick": 4021,
      "Ġpp": 4022,
      "Ġimmediately": 4023,
      "tee": 4024,
      "eding": 4025,
      "era": 4026,
      "Ġmag": 4027,
      "ĠGreen": 4028,
      "Ġtask": 4029,
      "ĠCur": 4030,
      "Ad": 4031,
      "ĠBlack": 4032,
      "Ġsexual": 4033,
      "All": 4034,
      "ĠFrance": 4035,
      "Ġresistance": 4036,
      "Ġimmune": 4037,
      "enth": 4038,
      "Ġvo": 4039,
      "uild": 4040,
      "abilities": 4041,
      "Ġbox": 4042,
      "ĠEnvironment": 4043,
      "Ġweak": 4044,
      "Ġopin": 4045,
      "RE": 4046,
      "key": 4047,
      "Ġstim": 4048,
      "Ġkid": 4049,
      "Ġwrong": 4050,
      "Ġantib": 4051,
      "Ġactual": 4052,
      "ĠProgram": 4053,
      "ĠIr": 4054,
      "Ġexhib": 4055,
      "ĠEach": 4056,
      "Ġ27": 4057,
      "Ġincome": 4058,
      "DA": 4059,
      "Ġing": 4060,
      "Ġreports": 4061,
      "Ġphen": 4062,
      "Ġstaff": 4063,
      "After": 4064,
      "Ġregions": 4065,
      "Ġ+": 4066,
      "Ġhappen": 4067,
      "Ġextremely": 4068,
      "Ġfavor": 4069,
      "Ġ2005": 4070,
      "Ġdetect": 4071,
      "Ġdistribution": 4072,
      "Ġeffic": 4073,
      "Ġtopic": 4074,
      "Ġabsor": 4075,
      "Ġcry": 4076,
      "Ġinstruct": 4077,
      "Ġload": 4078,
      "Ġhighest": 4079,
      "Ġmap": 4080,
      "ogle": 4081,
      "Ġexplain": 4082,
      "Ġlegis": 4083,
      "Ġstructures": 4084,
      "Ġfriend": 4085,
      "ĠThus": 4086,
      "Ġhousehold": 4087,
      "ĠInter": 4088,
      "Ġguide": 4089,
      "ifically": 4090,
      "Ġtreated": 4091,
      "ĠPublic": 4092,
      "Ġsac": 4093,
      "Ġdivid": 4094,
      "Ġapproximately": 4095,
      "su": 4096,
      "Ġbodies": 4097,
      "ĠSur": 4098,
      "ĠJames": 4099,
      "ĠVol": 4100,
      "Ġcollabor": 4101,
      "Ġgarden": 4102,
      "ĠMich": 4103,
      "Is": 4104,
      "wards": 4105,
      "Ġoptions": 4106,
      "Ġconsumption": 4107,
      "Ġcommercial": 4108,
      "Ġgene": 4109,
      "ĠUK": 4110,
      "Ġapply": 4111,
      "Be": 4112,
      "Ġstyle": 4113,
      "iox": 4114,
      "Ġchallenges": 4115,
      "Ġurban": 4116,
      "ĠTur": 4117,
      "ĠMor": 4118,
      "eces": 4119,
      "clus": 4120,
      "Ġmuscle": 4121,
      "ĠOb": 4122,
      "Ġgeneration": 4123,
      "Ġhair": 4124,
      "ander": 4125,
      "Ġinnov": 4126,
      "change": 4127,
      "Ġfilm": 4128,
      "cast": 4129,
      "ĠLord": 4130,
      "Ġfig": 4131,
      "otes": 4132,
      "Ġparty": 4133,
      "Ġdyn": 4134,
      "Ġemphas": 4135,
      "Ġcomponents": 4136,
      "ĠBra": 4137,
      "ĠGovernment": 4138,
      "Ġspring": 4139,
      "Ġpopulations": 4140,
      "Ġgraph": 4141,
      "Ġtechnologies": 4142,
      "Ġwatch": 4143,
      "Ġgain": 4144,
      "Ġ190": 4145,
      "Ġchallenge": 4146,
      "Ġspect": 4147,
      "Ġreference": 4148,
      "Ġfreedom": 4149,
      "Ġnutrition": 4150,
      "Ar": 4151,
      "Ġisland": 4152,
      "Ġcarried": 4153,
      "rome": 4154,
      "Ġdecades": 4155,
      "ĠAut": 4156,
      "Ġdisorder": 4157,
      "ĠPlan": 4158,
      "Ġorganizations": 4159,
      "Ġpick": 4160,
      "Ġlived": 4161,
      "stitution": 4162,
      "Ġletter": 4163,
      "Ġvitamin": 4164,
      "Ġobserved": 4165,
      "Ġdepression": 4166,
      "char": 4167,
      "OS": 4168,
      "Ġdestroy": 4169,
      "orage": 4170,
      "ophy": 4171,
      "Ġslight": 4172,
      "Ġconnected": 4173,
      "igen": 4174,
      "Ġstrategies": 4175,
      "Ġheavy": 4176,
      "nes": 4177,
      "Ġexplore": 4178,
      "Ġbalance": 4179,
      "iated": 4180,
      "Ġplanning": 4181,
      "Ġbuildings": 4182,
      "ygen": 4183,
      "Ġchronic": 4184,
      "Ġboard": 4185,
      "Ġign": 4186,
      "Ġdim": 4187,
      "antic": 4188,
      "iment": 4189,
      "Ġestimated": 4190,
      "ĠDon": 4191,
      "ĠRel": 4192,
      "Ġmilk": 4193,
      "ĠHuman": 4194,
      "Ġdisorders": 4195,
      "Ġemissions": 4196,
      "rative": 4197,
      "ĠDec": 4198,
      "Ġhomes": 4199,
      "Ġnotes": 4200,
      "Ġexcess": 4201,
      "ean": 4202,
      "Ġnovel": 4203,
      "Ġelectricity": 4204,
      "Ġbecoming": 4205,
      "Ġmeat": 4206,
      "apers": 4207,
      "Ġfeature": 4208,
      "Ġfields": 4209,
      "Ġcopy": 4210,
      "Ġprice": 4211,
      "Ġmedicine": 4212,
      "Ġintroduced": 4213,
      "ĠAv": 4214,
      "Ġelim": 4215,
      "Ġrecords": 4216,
      "Ġves": 4217,
      "Ġrelease": 4218,
      "ares": 4219,
      "Ġbran": 4220,
      "porary": 4221,
      "Ġappe": 4222,
      "ĠCollege": 4223,
      "Ġpresented": 4224,
      "Ġliterature": 4225,
      "Ġclinical": 4226,
      "omic": 4227,
      "rest": 4228,
      "Ġfaith": 4229,
      "Ġocean": 4230,
      "Ġcand": 4231,
      "Ġâ": 4232,
      "ingly": 4233,
      "Ġvary": 4234,
      "Ġeasier": 4235,
      "bed": 4236,
      "ped": 4237,
      "Ġmer": 4238,
      "plications": 4239,
      "Ġexperiences": 4240,
      "rant": 4241,
      "Ġmo": 4242,
      "ĠSpanish": 4243,
      "oma": 4244,
      "ulf": 4245,
      "Ġship": 4246,
      "Ġclearly": 4247,
      "ĠDevelopment": 4248,
      "Ġcontrast": 4249,
      "Ġgoals": 4250,
      "Ġsetting": 4251,
      "ĠMat": 4252,
      "ida": 4253,
      "Ġconv": 4254,
      "Ġindustrial": 4255,
      "Ġutil": 4256,
      "Ġtour": 4257,
      "Ġdoub": 4258,
      "amental": 4259,
      "Ġreleased": 4260,
      "78": 4261,
      "Ġnoted": 4262,
      "Ġmale": 4263,
      "ĠFood": 4264,
      "Ġtransl": 4265,
      "ĠMuseum": 4266,
      "Ġphysic": 4267,
      "Ġ29": 4268,
      "Ġalternative": 4269,
      "unction": 4270,
      "Ġserve": 4271,
      "elines": 4272,
      "Ġbottom": 4273,
      "Ġdesp": 4274,
      "Ġcombination": 4275,
      "opy": 4276,
      "ortion": 4277,
      "Ġaspects": 4278,
      "Ġreality": 4279,
      "Ġmotion": 4280,
      "ĠOff": 4281,
      "Ġstarting": 4282,
      "ĠNet": 4283,
      "Ġnumerous": 4284,
      "33": 4285,
      "ĠChe": 4286,
      "erved": 4287,
      "Ġdecisions": 4288,
      "Ġdiscussion": 4289,
      "essor": 4290,
      "ager": 4291,
      "Ġexperiment": 4292,
      "ĠGreek": 4293,
      "tered": 4294,
      "ii": 4295,
      "Ġesc": 4296,
      "Ġlayer": 4297,
      "Ġstore": 4298,
      "ĠRepublic": 4299,
      "ias": 4300,
      "Ġcausing": 4301,
      "Ġturned": 4302,
      "Ġliqu": 4303,
      "Ġtemperatures": 4304,
      "Ġrul": 4305,
      "ĠUnder": 4306,
      "ĠPaul": 4307,
      "ube": 4308,
      "roup": 4309,
      "Ġagg": 4310,
      "Ġessay": 4311,
      "Ġresource": 4312,
      "Ġpartners": 4313,
      "Ġoperations": 4314,
      "Ġstream": 4315,
      "Ġwidely": 4316,
      "Ġdrop": 4317,
      "Ġkilled": 4318,
      "Ġterrit": 4319,
      "Ph": 4320,
      "Ġbattle": 4321,
      "ij": 4322,
      "Ġitems": 4323,
      "uses": 4324,
      "Ġsignificantly": 4325,
      "Ġindependent": 4326,
      "Ġrot": 4327,
      "ĠRev": 4328,
      "Ġcampaign": 4329,
      "Ġhear": 4330,
      "Ġtim": 4331,
      "ulum": 4332,
      "Ġfrequently": 4333,
      "Ġgets": 4334,
      "EM": 4335,
      "iding": 4336,
      "Ġsave": 4337,
      "Ġthr": 4338,
      "olid": 4339,
      "ĠGeorge": 4340,
      "45": 4341,
      "Ġgrant": 4342,
      "Ġannual": 4343,
      "Ġbed": 4344,
      "ously": 4345,
      "Ġoutput": 4346,
      "Ġanyone": 4347,
      "tical": 4348,
      "erate": 4349,
      "ressive": 4350,
      "Ġconnection": 4351,
      "ago": 4352,
      "ologists": 4353,
      "lick": 4354,
      "ĠAir": 4355,
      "Ġ80": 4356,
      "Ġcovered": 4357,
      "Ġbone": 4358,
      "othes": 4359,
      "Ġauthors": 4360,
      "ĠArab": 4361,
      "Ġwhom": 4362,
      "zz": 4363,
      "aped": 4364,
      "ĠSpec": 4365,
      "Ġroot": 4366,
      "Ġserved": 4367,
      "Ġvessel": 4368,
      "Ġ2014": 4369,
      "ĠWeb": 4370,
      "Ġradio": 4371,
      "Ġrequirements": 4372,
      "care": 4373,
      "Ġnor": 4374,
      "olved": 4375,
      "Ġconducted": 4376,
      "ollow": 4377,
      "ĠOver": 4378,
      "ĠKore": 4379,
      "met": 4380,
      "ĠBel": 4381,
      "Ġdogs": 4382,
      "ĠDes": 4383,
      "Ġmessage": 4384,
      "leg": 4385,
      "Ġcore": 4386,
      "ception": 4387,
      "Äģ": 4388,
      "ructure": 4389,
      "Ġcycle": 4390,
      "ĠCath": 4391,
      "anging": 4392,
      "Ġcompl": 4393,
      "ĠSam": 4394,
      "Ġstatement": 4395,
      "ĠMary": 4396,
      "works": 4397,
      "Ġisol": 4398,
      "Ġmetal": 4399,
      "ĠChildren": 4400,
      "Ġupper": 4401,
      "Ġhelped": 4402,
      "Ġbeautiful": 4403,
      "Ġsurgery": 4404,
      "Ġdegrees": 4405,
      "Ġsample": 4406,
      "35": 4407,
      "road": 4408,
      "ĠMount": 4409,
      "ria": 4410,
      "Ġplastic": 4411,
      "Ġmeeting": 4412,
      "ressed": 4413,
      "Ġchanging": 4414,
      "ĠOrgan": 4415,
      "Ġtum": 4416,
      "Ġ186": 4417,
      "ĠMal": 4418,
      "orial": 4419,
      "Ġdangerous": 4420,
      "Ġresulting": 4421,
      "Ġpi": 4422,
      "edic": 4423,
      "Ġpolicies": 4424,
      "bal": 4425,
      "Ġperformed": 4426,
      "icial": 4427,
      "ĠSun": 4428,
      "ux": 4429,
      "Ġcollege": 4430,
      "onic": 4431,
      "oting": 4432,
      "Ġprinciples": 4433,
      "Ġfinding": 4434,
      "Ġtechnique": 4435,
      "ieties": 4436,
      "Ġtrib": 4437,
      "Ġcomprehens": 4438,
      "Ġhappens": 4439,
      "atically": 4440,
      "Ġbelong": 4441,
      "raction": 4442,
      "Ġunivers": 4443,
      "Ġwanted": 4444,
      "Ġwin": 4445,
      "Ġnorthern": 4446,
      "Ġgames": 4447,
      "ilit": 4448,
      "ĠâĢ¦": 4449,
      "Ġfine": 4450,
      "Ġspeech": 4451,
      "itz": 4452,
      "do": 4453,
      "Ġiron": 4454,
      "Ġremove": 4455,
      "Sh": 4456,
      "Ġradiation": 4457,
      "Ġalg": 4458,
      "Ġtrust": 4459,
      "Ġrisks": 4460,
      "ĠIsland": 4461,
      "Ġexactly": 4462,
      "Ġlib": 4463,
      "erences": 4464,
      "Ġinterpret": 4465,
      "Ġreligion": 4466,
      "ĠFound": 4467,
      "Ġdistinct": 4468,
      "Ġspent": 4469,
      "Ġdrive": 4470,
      "Ġintellig": 4471,
      "Ġdetermined": 4472,
      "ĠLet": 4473,
      "onds": 4474,
      "Ġbrother": 4475,
      "Ġrecommended": 4476,
      "ault": 4477,
      "ĠLa": 4478,
      "Ġflood": 4479,
      "aughter": 4480,
      "Ġtrou": 4481,
      "atform": 4482,
      "Ġreprodu": 4483,
      "Ġparticipants": 4484,
      "Ġunf": 4485,
      "Ġexpression": 4486,
      "board": 4487,
      "Ġreferred": 4488,
      "Ġreb": 4489,
      "raw": 4490,
      "Ġpreviously": 4491,
      "Ġdram": 4492,
      "ĠDem": 4493,
      "Ġminor": 4494,
      "ĠIslam": 4495,
      "Ġ2004": 4496,
      "Ġcircum": 4497,
      "Ġburn": 4498,
      "Ġhom": 4499,
      "US": 4500,
      "Ġmel": 4501,
      "Ġready": 4502,
      "Ġoxygen": 4503,
      "Ġkill": 4504,
      "rog": 4505,
      "Ġprefer": 4506,
      "Ġcreation": 4507,
      "Ġgrass": 4508,
      "Ġremoved": 4509,
      "CC": 4510,
      "oyal": 4511,
      "According": 4512,
      "Ġbuy": 4513,
      "ping": 4514,
      "isher": 4515,
      "iveness": 4516,
      "Ġcounter": 4517,
      "och": 4518,
      "ĠIts": 4519,
      "Ġglass": 4520,
      "ĠRober": 4521,
      "Ġconfirm": 4522,
      "AM": 4523,
      "rum": 4524,
      "ocal": 4525,
      "Ġarm": 4526,
      "Ġorganic": 4527,
      "Ġlandsc": 4528,
      "Ġhour": 4529,
      "Ġ2003": 4530,
      "Ġ2017": 4531,
      "Ġproposed": 4532,
      "cers": 4533,
      "Ġvictim": 4534,
      "ulating": 4535,
      "Ġconservation": 4536,
      "________": 4537,
      "berg": 4538,
      "Ġunits": 4539,
      "mal": 4540,
      "Ġpret": 4541,
      "Sp": 4542,
      "ĠST": 4543,
      "roph": 4544,
      "ags": 4545,
      "Ġassessment": 4546,
      "Here": 4547,
      "ĠSen": 4548,
      "Ġscen": 4549,
      "Ġplease": 4550,
      "urt": 4551,
      "Ġmostly": 4552,
      "Ġdescribe": 4553,
      "ĠMars": 4554,
      "Ġsquare": 4555,
      "Ġtrig": 4556,
      "Ġsouthern": 4557,
      "ĠWork": 4558,
      "Ġcredit": 4559,
      "Ġ#": 4560,
      "Ġstorage": 4561,
      "ĠPort": 4562,
      "Ġinfections": 4563,
      "That": 4564,
      "rations": 4565,
      "Ġexcell": 4566,
      "Ġinflamm": 4567,
      "well": 4568,
      "Ġpal": 4569,
      "rian": 4570,
      "ategy": 4571,
      "Ġrelationships": 4572,
      "Ġregarding": 4573,
      "rans": 4574,
      "Ġowners": 4575,
      "Ġmathemat": 4576,
      "asks": 4577,
      "Ġyouth": 4578,
      "Ġobvious": 4579,
      "ognitive": 4580,
      "Ġvul": 4581,
      "Ġsynt": 4582,
      "Ġlinked": 4583,
      "Ġvolunt": 4584,
      "Ġcharacteristics": 4585,
      "Ġheard": 4586,
      "ĠFore": 4587,
      "Ġexpert": 4588,
      "Ġfeeling": 4589,
      "Ġinstitutions": 4590,
      "Â°": 4591,
      "Ġhop": 4592,
      "Ġclos": 4593,
      "Ġstrategy": 4594,
      "ĠWhy": 4595,
      "PS": 4596,
      "Ġhearing": 4597,
      "ortunately": 4598,
      "Ġinitial": 4599,
      "Ġviolence": 4600,
      "Ġinternal": 4601,
      "Ġencourage": 4602,
      "riage": 4603,
      "ĠRussian": 4604,
      "Ġgenes": 4605,
      "Ġlic": 4606,
      "ĠMark": 4607,
      "36": 4608,
      "ĠSer": 4609,
      "Ġinvolve": 4610,
      "Ġidentity": 4611,
      "ta": 4612,
      "ĠOnce": 4613,
      "Ġupd": 4614,
      "Ġdecided": 4615,
      "osystem": 4616,
      "with": 4617,
      "Ġpages": 4618,
      "ishing": 4619,
      "Ġexperienced": 4620,
      "Ġround": 4621,
      "Ġ90": 4622,
      "kin": 4623,
      "Ġimpl": 4624,
      "Ġcharge": 4625,
      "Ġwaters": 4626,
      "Ġsolid": 4627,
      "Ġmeant": 4628,
      "Ġmentioned": 4629,
      "Ġdatab": 4630,
      "Ġremained": 4631,
      "nam": 4632,
      "Ġanxiety": 4633,
      "uted": 4634,
      "ras": 4635,
      "Ġarticles": 4636,
      "Ġcris": 4637,
      "Ġsaying": 4638,
      "Ġconflict": 4639,
      "Ġinvent": 4640,
      "ĠAsia": 4641,
      "Ġclasses": 4642,
      "umn": 4643,
      "Ġprepar": 4644,
      "Ġprepared": 4645,
      "ĠGra": 4646,
      "Ġfailure": 4647,
      "rows": 4648,
      "ĠBudd": 4649,
      "reland": 4650,
      "Ġmist": 4651,
      "Ġconclud": 4652,
      "Ġinjury": 4653,
      "ya": 4654,
      "Ġnit": 4655,
      "Ġemail": 4656,
      "Ġ...": 4657,
      "Ġsolutions": 4658,
      "Ġoption": 4659,
      "Ġrelevant": 4660,
      "uing": 4661,
      "Ġclick": 4662,
      "iverse": 4663,
      "Many": 4664,
      "Ġjour": 4665,
      "Ġforced": 4666,
      "Ġofficial": 4667,
      "ĠDirect": 4668,
      "mat": 4669,
      "Ġeffectively": 4670,
      "Ġproperly": 4671,
      "ET": 4672,
      "Ġleads": 4673,
      "Ġinterested": 4674,
      "ĠWhite": 4675,
      "However": 4676,
      "Ġbackground": 4677,
      "Ġreplace": 4678,
      "Ġincorpor": 4679,
      "Con": 4680,
      "Our": 4681,
      "Ġsav": 4682,
      "ĠMet": 4683,
      "oper": 4684,
      "Ġwealth": 4685,
      "Ġdiss": 4686,
      "Ġinh": 4687,
      "ĠEv": 4688,
      "Ġeggs": 4689,
      "ĠSal": 4690,
      "Ġadvantage": 4691,
      "Ġdie": 4692,
      "riculum": 4693,
      "Ġ189": 4694,
      "uration": 4695,
      "Ġamounts": 4696,
      "ĠProject": 4697,
      "Ġreducing": 4698,
      "Ġsettle": 4699,
      "Ġacademic": 4700,
      "ĠHen": 4701,
      "Ġgrand": 4702,
      "Ġtransform": 4703,
      "ĠTherefore": 4704,
      "Ġchemicals": 4705,
      "lease": 4706,
      "Ġphenomen": 4707,
      "Ġreached": 4708,
      "ears": 4709,
      "Ġfinally": 4710,
      "rete": 4711,
      "Ġban": 4712,
      "ĠStudents": 4713,
      "ĠTest": 4714,
      "ributed": 4715,
      "Ġexperts": 4716,
      "Ġreaction": 4717,
      "75": 4718,
      "Ġpun": 4719,
      "Ġgar": 4720,
      "rep": 4721,
      "akers": 4722,
      "Ġaid": 4723,
      "Ġspot": 4724,
      "Ġinvolves": 4725,
      "ĠThomas": 4726,
      "oviet": 4727,
      "ĠRich": 4728,
      "Ġtrend": 4729,
      "Ġadvanced": 4730,
      "wood": 4731,
      "Ġsort": 4732,
      "Ġtooth": 4733,
      "Ġpip": 4734,
      "astern": 4735,
      "acing": 4736,
      "Ġkept": 4737,
      "Ġdro": 4738,
      "Ġmotor": 4739,
      "tes": 4740,
      "ĠNASA": 4741,
      "Ġadjust": 4742,
      "'ll": 4743,
      "Ġcoord": 4744,
      "Ġsand": 4745,
      "Ġdepending": 4746,
      "eline": 4747,
      "Ġmanner": 4748,
      "Ġfarmers": 4749,
      "Ġexposed": 4750,
      "Ġleader": 4751,
      "ĠBritain": 4752,
      "ĠBer": 4753,
      "acific": 4754,
      "Ġpromote": 4755,
      "Ġvolume": 4756,
      "Ġsufficient": 4757,
      "ĠInf": 4758,
      "Ġdiscover": 4759,
      "rus": 4760,
      "Ġgender": 4761,
      "Ġraised": 4762,
      "Ġcenturies": 4763,
      "Although": 4764,
      "ĠQue": 4765,
      "ĠMr": 4766,
      "Ġarmy": 4767,
      "Ġtoxic": 4768,
      "Ġconver": 4769,
      "Ġlesson": 4770,
      "Res": 4771,
      "ndrome": 4772,
      "Ġeast": 4773,
      "ĠMart": 4774,
      "ĠWell": 4775,
      "Ġtrial": 4776,
      "Ġwest": 4777,
      "ancing": 4778,
      "ĠHIV": 4779,
      "AD": 4780,
      "ossible": 4781,
      "Ġdri": 4782,
      "ĠMiss": 4783,
      "Ġcorresp": 4784,
      "Ġsusp": 4785,
      "Ġtrad": 4786,
      "Ġfort": 4787,
      "Ġsecret": 4788,
      "ĠLou": 4789,
      "ĠArmy": 4790,
      "Ġpric": 4791,
      "iling": 4792,
      "Ġgirls": 4793,
      "Ġpieces": 4794,
      "ĠOld": 4795,
      "Ġmanufacture": 4796,
      "place": 4797,
      "ework": 4798,
      "Ġprocessing": 4799,
      "Ġ70": 4800,
      "Ġconcepts": 4801,
      "Ġrace": 4802,
      "Ġauthority": 4803,
      "which": 4804,
      "Why": 4805,
      "ĠPhys": 4806,
      "west": 4807,
      "ĠAtl": 4808,
      "Ġlung": 4809,
      "ĠSub": 4810,
      "Ġhelping": 4811,
      "Ġprimarily": 4812,
      "Ġemotional": 4813,
      "Ġsong": 4814,
      "Ġinput": 4815,
      "Ġvegetables": 4816,
      "itors": 4817,
      "Ġdefic": 4818,
      "Ġsupported": 4819,
      "Ġconcern": 4820,
      "Ġwonder": 4821,
      "col": 4822,
      "Ġflowers": 4823,
      "vis": 4824,
      "atric": 4825,
      "Ġpresc": 4826,
      "Ġlargely": 4827,
      "enced": 4828,
      "ĠBas": 4829,
      "standing": 4830,
      "From": 4831,
      "olars": 4832,
      "Ġoffered": 4833,
      "ĠSpace": 4834,
      "ifying": 4835,
      "Ġyellow": 4836,
      "za": 4837,
      "Ġintended": 4838,
      "ishes": 4839,
      "Ġcontinues": 4840,
      "Ã¡": 4841,
      "Ġletters": 4842,
      "Ġneighbor": 4843,
      "Ġnotice": 4844,
      "apes": 4845,
      "Ġ35": 4846,
      "Now": 4847,
      "Ġbrief": 4848,
      "asure": 4849,
      "Ġmainly": 4850,
      "ixt": 4851,
      "Ġoperation": 4852,
      "Ġprofession": 4853,
      "Ġatmosphere": 4854,
      "ĠLife": 4855,
      "rence": 4856,
      "clusion": 4857,
      "Ġoccurred": 4858,
      "Ġlinks": 4859,
      "Ġplatform": 4860,
      "Ġconsult": 4861,
      "ĠService": 4862,
      "Ġblog": 4863,
      "Ġdrinking": 4864,
      "Ġnav": 4865,
      "Ġlooks": 4866,
      "Ġcomfort": 4867,
      "Ġmanage": 4868,
      "Ġdoll": 4869,
      "Ġkn": 4870,
      "Ġinstall": 4871,
      "ĠIreland": 4872,
      "'ve": 4873,
      "Ġthick": 4874,
      "Ġappoint": 4875,
      "ĠMedical": 4876,
      "Ġbegins": 4877,
      "vision": 4878,
      "ĠTex": 4879,
      "Ġpractical": 4880,
      "oking": 4881,
      "Ġrand": 4882,
      "Ġpersons": 4883,
      "ĠCentral": 4884,
      "ĠMass": 4885,
      "Ġcombined": 4886,
      "ĠMedicine": 4887,
      "Ġcompleted": 4888,
      "Ġallowing": 4889,
      "espite": 4890,
      "lig": 4891,
      "Ġgrade": 4892,
      "ael": 4893,
      "Ġhit": 4894,
      "Ġlanguages": 4895,
      "Ġtro": 4896,
      "Ġflex": 4897,
      "Ġemergency": 4898,
      "omin": 4899,
      "ĠVirgin": 4900,
      "Ġmath": 4901,
      "New": 4902,
      "roke": 4903,
      "Cl": 4904,
      "Ġtaught": 4905,
      "BN": 4906,
      "ari": 4907,
      "Ġ2002": 4908,
      "ĠMuslim": 4909,
      "38": 4910,
      "ounced": 4911,
      "Ab": 4912,
      "Ġdefinition": 4913,
      "ĠJer": 4914,
      "Ġpurposes": 4915,
      "ĠBay": 4916,
      "Ġtechnical": 4917,
      "Ġconcerns": 4918,
      "ĠJews": 4919,
      "Ġshared": 4920,
      "Ġprofessor": 4921,
      "Ġclaims": 4922,
      "Ġcere": 4923,
      "Ġrandom": 4924,
      "Ġelectrical": 4925,
      "zing": 4926,
      "otic": 4927,
      "ĠFre": 4928,
      "aturally": 4929,
      "oo": 4930,
      "Ġhighlight": 4931,
      "ĠNews": 4932,
      "ĠFlor": 4933,
      "Ġdiagnosis": 4934,
      "Ġpollution": 4935,
      "Ġvulner": 4936,
      "Ġseek": 4937,
      "Americ": 4938,
      "Ġseed": 4939,
      "ams": 4940,
      "Ġextent": 4941,
      "Ġideal": 4942,
      "ĠCivil": 4943,
      "ĠHel": 4944,
      "ormal": 4945,
      "Ġprocedure": 4946,
      "Ġfundamental": 4947,
      "Ġstorm": 4948,
      "Ġmaster": 4949,
      "Ġparticles": 4950,
      "Ġminimum": 4951,
      "ĠCommission": 4952,
      "going": 4953,
      "ĠDi": 4954,
      "alle": 4955,
      "Ġwife": 4956,
      "ado": 4957,
      "Ġprotected": 4958,
      "Ġkinds": 4959,
      "ĠCourt": 4960,
      "Ġpros": 4961,
      "CO": 4962,
      "ĠSoviet": 4963,
      "Ġrecorded": 4964,
      "Ġreturned": 4965,
      "Ġmorning": 4966,
      "Ġcast": 4967,
      "Ġseeds": 4968,
      "Ġprison": 4969,
      "Ġ2001": 4970,
      "Ġefficiency": 4971,
      "gra": 4972,
      "Ġfelt": 4973,
      "Ġexplan": 4974,
      "Ġrenew": 4975,
      "utive": 4976,
      "Ġshowing": 4977,
      "Ġiniti": 4978,
      "Ġquar": 4979,
      "ĠEvery": 4980,
      "Most": 4981,
      "mp": 4982,
      "Ġstem": 4983,
      "RO": 4984,
      "48": 4985,
      "Ġpul": 4986,
      "ĠRem": 4987,
      "acters": 4988,
      "Ġreduction": 4989,
      "win": 4990,
      "Ġsche": 4991,
      "osen": 4992,
      "Ġimproved": 4993,
      "ĠAcadem": 4994,
      "ey": 4995,
      "Ġresist": 4996,
      "Ġperspective": 4997,
      "ample": 4998,
      "Ġgreatest": 4999,
      "Ġengineering": 5000,
      "Ġawareness": 5001,
      "ball": 5002,
      "osite": 5003,
      "Ġlov": 5004,
      "ĠDist": 5005,
      "ĠBi": 5006,
      "Ġfacts": 5007,
      "Ġcollected": 5008,
      "Ġdespite": 5009,
      "Ġindicate": 5010,
      "Ġcomment": 5011,
      "ĠRussia": 5012,
      "Ġwel": 5013,
      "enses": 5014,
      "Ġsnow": 5015,
      "olute": 5016,
      "Ġbud": 5017,
      "Ġflat": 5018,
      "Ġmaximum": 5019,
      "Ġmere": 5020,
      "Ġexistence": 5021,
      "ĠMexico": 5022,
      "Ġmos": 5023,
      "rier": 5024,
      "Ġcertainly": 5025,
      "Ġfrequency": 5026,
      "Ġstation": 5027,
      "Ġshar": 5028,
      "Ġbill": 5029,
      "Ġhorm": 5030,
      "ĠConstitution": 5031,
      "ville": 5032,
      "what": 5033,
      "tion": 5034,
      "point": 5035,
      "la": 5036,
      "Ġsin": 5037,
      "Ġrevolution": 5038,
      "ĠMac": 5039,
      "Ġsustainable": 5040,
      "gl": 5041,
      "Ġbright": 5042,
      "Ġjobs": 5043,
      "Ġenem": 5044,
      "Ġsuggested": 5045,
      "Ġfirm": 5046,
      "rapy": 5047,
      "ĠÃ": 5048,
      "Ġdiscrim": 5049,
      "Ġdetailed": 5050,
      "ht": 5051,
      "Ġspiritual": 5052,
      "verty": 5053,
      "ulin": 5054,
      "ĠHol": 5055,
      "ĠKen": 5056,
      "Ġcoal": 5057,
      "Ġsurpris": 5058,
      "Ġmotiv": 5059,
      "Ġstraight": 5060,
      "Ġkil": 5061,
      "Ġsatis": 5062,
      "Ġphase": 5063,
      "ST": 5064,
      "aker": 5065,
      "Ġexplains": 5066,
      "39": 5067,
      "Ġfoss": 5068,
      "Ġchief": 5069,
      "resents": 5070,
      "ĠLatin": 5071,
      "ĠTwo": 5072,
      "Pl": 5073,
      "nic": 5074,
      "Ġsend": 5075,
      "ĠAp": 5076,
      "Ġrail": 5077,
      "Ġfluid": 5078,
      "Ġpoverty": 5079,
      "Ġapproaches": 5080,
      "Ġadvice": 5081,
      "ĠEconom": 5082,
      "inating": 5083,
      "ĠEmp": 5084,
      "rich": 5085,
      "Ġpolice": 5086,
      "Ġconsists": 5087,
      "Ġspecifically": 5088,
      "Ġformation": 5089,
      "Ġther": 5090,
      "Ġlooked": 5091,
      "ĠEnergy": 5092,
      "Ġdynam": 5093,
      "Ġconsequences": 5094,
      "oughly": 5095,
      "Ġhabitat": 5096,
      "inf": 5097,
      "100": 5098,
      "lar": 5099,
      "iced": 5100,
      "Ġ1990": 5101,
      "Ġhyper": 5102,
      "ca": 5103,
      "Ġdu": 5104,
      "ache": 5105,
      "Ġcontrolled": 5106,
      "Ġdivided": 5107,
      "cript": 5108,
      "Ġonto": 5109,
      "ĠOp": 5110,
      "Ġhappened": 5111,
      "Ġbow": 5112,
      "Ġsector": 5113,
      "Ġfif": 5114,
      "ĠBible": 5115,
      "Ġbiological": 5116,
      "Ġresponsibility": 5117,
      "Ġsounds": 5118,
      "ĠCharles": 5119,
      "inent": 5120,
      "ĠToday": 5121,
      "ĠJose": 5122,
      "comes": 5123,
      "Ġfle": 5124,
      "anges": 5125,
      "Ġvast": 5126,
      "ĠSou": 5127,
      "ĠMil": 5128,
      "Ġpotentially": 5129,
      "Ġsituations": 5130,
      "Ġcontribute": 5131,
      "Ġlik": 5132,
      "Ġmonitoring": 5133,
      "Ġaren": 5134,
      "Ġspl": 5135,
      "active": 5136,
      "Ġsurrounding": 5137,
      "Ġstars": 5138,
      "Ġoperating": 5139,
      "Ġfib": 5140,
      "Ġinsurance": 5141,
      "Ġmix": 5142,
      "Ġdial": 5143,
      "Ġinterests": 5144,
      "ĠTechnology": 5145,
      "Ġattacks": 5146,
      "hips": 5147,
      "state": 5148,
      "Ġslightly": 5149,
      "unk": 5150,
      "Ġsalt": 5151,
      "ested": 5152,
      "Ġthoughts": 5153,
      "Ġagricultural": 5154,
      "Ġappeared": 5155,
      "ses": 5156,
      "ĠDise": 5157,
      "Ġdepth": 5158,
      "Ġecosystem": 5159,
      "34": 5160,
      "Ġbird": 5161,
      "Ġexcellent": 5162,
      "Ġdomestic": 5163,
      "Ġsamples": 5164,
      "RI": 5165,
      "band": 5166,
      "othing": 5167,
      "Ġimpacts": 5168,
      "Ġstone": 5169,
      "emic": 5170,
      "ĠFurther": 5171,
      "Ġcareer": 5172,
      "Ġhundreds": 5173,
      "Ġpil": 5174,
      "Ġliquid": 5175,
      "Ġperman": 5176,
      "Ġadvance": 5177,
      "Ġhospital": 5178,
      "Ġotherwise": 5179,
      "Ġrefers": 5180,
      "ĠColumb": 5181,
      "Ġrecognized": 5182,
      "Ġcert": 5183,
      "Ġtrain": 5184,
      "Ġsignal": 5185,
      "rolog": 5186,
      "Ġtopics": 5187,
      "ĠClass": 5188,
      "Ġcrops": 5189,
      "Ġreform": 5190,
      "Ġplayed": 5191,
      "Ġfocused": 5192,
      "Ġpaid": 5193,
      "anta": 5194,
      "Ġgoods": 5195,
      "Ġcharacters": 5196,
      "ĠCatholic": 5197,
      "ĠPacific": 5198,
      "Ġpark": 5199,
      "Ġsubstant": 5200,
      "Ġmort": 5201,
      "Ġviews": 5202,
      "Ġfamiliar": 5203,
      "Ġfaster": 5204,
      "Ġsyn": 5205,
      "Ġaffects": 5206,
      "alian": 5207,
      "name": 5208,
      "ĠCle": 5209,
      "hma": 5210,
      "Ġgovernments": 5211,
      "Ġsubjects": 5212,
      "that": 5213,
      "ĠElect": 5214,
      "Ġkm": 5215,
      "Ġknew": 5216,
      "Ġtitle": 5217,
      "ĠBook": 5218,
      "Ġheight": 5219,
      "body": 5220,
      "Ġspend": 5221,
      "Ġwestern": 5222,
      "ometimes": 5223,
      "Ġincreasingly": 5224,
      "Ġcontinuous": 5225,
      "Ġofficials": 5226,
      "ded": 5227,
      "Ġfollows": 5228,
      "Ġhaz": 5229,
      "ĠBen": 5230,
      "chers": 5231,
      "ensus": 5232,
      "Ġmetab": 5233,
      "ĠBoth": 5234,
      "Ġvital": 5235,
      "Ġapparent": 5236,
      "Ġmuscles": 5237,
      "Ġstated": 5238,
      "Ġconvent": 5239,
      "van": 5240,
      "Ġcontem": 5241,
      "Ġdiscovery": 5242,
      "Ġpray": 5243,
      "ION": 5244,
      "No": 5245,
      "oral": 5246,
      "ĠTexas": 5247,
      "ague": 5248,
      "Ġrepresents": 5249,
      "Ġwalls": 5250,
      "ĠFranc": 5251,
      "igenous": 5252,
      "gal": 5253,
      "ĠInformation": 5254,
      "Ġvoice": 5255,
      "Ġwet": 5256,
      "Ġallerg": 5257,
      "Ġalt": 5258,
      "ĠDef": 5259,
      "ĠRef": 5260,
      "ipped": 5261,
      "eters": 5262,
      "Ġnations": 5263,
      "Ġroll": 5264,
      "Ġclosely": 5265,
      "ĠCompany": 5266,
      "Ġdocuments": 5267,
      "?âĢĿ": 5268,
      "cest": 5269,
      "Ġdisapp": 5270,
      "Ġtreatments": 5271,
      "Ġastron": 5272,
      "Ġcouple": 5273,
      "37": 5274,
      "Ġmarine": 5275,
      "Ġweap": 5276,
      "ĠNor": 5277,
      "ĠUp": 5278,
      "Ġleaving": 5279,
      "Ġdouble": 5280,
      "Ġnutrients": 5281,
      "Ġtried": 5282,
      "ĠBC": 5283,
      "ĠRobert": 5284,
      "liam": 5285,
      "inding": 5286,
      "Ġinstruction": 5287,
      "Ġportion": 5288,
      "Ġpaint": 5289,
      "Ġmeasured": 5290,
      "Ġstudied": 5291,
      "Ġconcentration": 5292,
      "ĠMiddle": 5293,
      "Ġvent": 5294,
      "ĠIrish": 5295,
      "EL": 5296,
      "Ġthin": 5297,
      "olf": 5298,
      "Ġgrown": 5299,
      "ÃŃ": 5300,
      "Ġliver": 5301,
      "stood": 5302,
      "racy": 5303,
      "More": 5304,
      "Ġtypical": 5305,
      "OT": 5306,
      "ĠHistor": 5307,
      "Ġlose": 5308,
      "âĢĻ.": 5309,
      "Ġkeeping": 5310,
      "Ġinvestment": 5311,
      "44": 5312,
      "down": 5313,
      "ĠTreat": 5314,
      "500": 5315,
      "itage": 5316,
      "Ġoral": 5317,
      "ĠISBN": 5318,
      "ĠAD": 5319,
      "ĠWind": 5320,
      "Ġproteins": 5321,
      "Ġinstrument": 5322,
      "Ġfing": 5323,
      "Ġrein": 5324,
      "aks": 5325,
      "ĠSmith": 5326,
      "attle": 5327,
      "eck": 5328,
      "field": 5329,
      "iest": 5330,
      "Ġplaying": 5331,
      "Ġclim": 5332,
      "Ġvalid": 5333,
      "Ġtouch": 5334,
      "Ġmamm": 5335,
      "Ġpig": 5336,
      "Ġperiods": 5337,
      "ĠGoogle": 5338,
      "itness": 5339,
      "ĠMont": 5340,
      "ĠPost": 5341,
      "Ġfloor": 5342,
      "Ġmoral": 5343,
      "rating": 5344,
      "atever": 5345,
      "Ġconcerned": 5346,
      "ĠLake": 5347,
      "Ġcontaining": 5348,
      "ĠWild": 5349,
      "Ġcrisis": 5350,
      "Ġsubsequ": 5351,
      "Ġexplained": 5352,
      "isp": 5353,
      "ellect": 5354,
      "ĠSecond": 5355,
      "rastructure": 5356,
      "Gen": 5357,
      "ĠRights": 5358,
      "Ġfacilities": 5359,
      "lers": 5360,
      "yro": 5361,
      "ĠCD": 5362,
      "Ġfertil": 5363,
      "Ġopinion": 5364,
      "ĠOut": 5365,
      "Ġabuse": 5366,
      "MS": 5367,
      "asive": 5368,
      "Ġimpossible": 5369,
      "Ġrapidly": 5370,
      "Ġnaturally": 5371,
      "Ġexternal": 5372,
      "Ġarms": 5373,
      "Ġaccurate": 5374,
      "ails": 5375,
      "Ġelev": 5376,
      "88": 5377,
      "Ġsed": 5378,
      "Ġband": 5379,
      "ĠNature": 5380,
      "ĠSte": 5381,
      "Ġhelpful": 5382,
      "Ġmyth": 5383,
      "55": 5384,
      "Ġstret": 5385,
      "ĠMem": 5386,
      "AP": 5387,
      "ND": 5388,
      "celer": 5389,
      "ĠStand": 5390,
      "Ġformal": 5391,
      "Ġdirector": 5392,
      "Ġpump": 5393,
      "Ġdiscussed": 5394,
      "Ġsen": 5395,
      "Ġfiles": 5396,
      "Ġselected": 5397,
      "ĠWomen": 5398,
      "Ġages": 5399,
      "ĠCommit": 5400,
      "ĠLand": 5401,
      "ompl": 5402,
      "ĠSea": 5403,
      "Ġmoist": 5404,
      "Ġtested": 5405,
      "Ġvalu": 5406,
      "Ġnarrow": 5407,
      "alse": 5408,
      "ĠLouis": 5409,
      "Ġrural": 5410,
      "Ġresidents": 5411,
      "Ġmovements": 5412,
      "ĠLearning": 5413,
      "Ġju": 5414,
      "nel": 5415,
      "Ġcomponent": 5416,
      "TS": 5417,
      "bi": 5418,
      "des": 5419,
      "ĠPers": 5420,
      "Ġ2018": 5421,
      "ĠCanadian": 5422,
      "ymph": 5423,
      "Ġpu": 5424,
      "Ġdistingu": 5425,
      "ĠOffice": 5426,
      "Ġcircumst": 5427,
      "ĠFlorida": 5428,
      "Ġmit": 5429,
      "Ġconscious": 5430,
      "Ġlatter": 5431,
      "BC": 5432,
      "Ġnerv": 5433,
      "liament": 5434,
      "Ġtips": 5435,
      "ario": 5436,
      "Ġvisible": 5437,
      "Ġcorrespond": 5438,
      "pat": 5439,
      "war": 5440,
      "osph": 5441,
      "Ġjustice": 5442,
      "Ġlessons": 5443,
      "ĠSupp": 5444,
      "ĠSuch": 5445,
      "Ġparties": 5446,
      "ĠControl": 5447,
      "ctic": 5448,
      "sts": 5449,
      "Ġfunding": 5450,
      "ĠFoundation": 5451,
      "Ġpure": 5452,
      "Ġmoon": 5453,
      "Ġneut": 5454,
      "mas": 5455,
      "99": 5456,
      "During": 5457,
      "Ġsides": 5458,
      "osc": 5459,
      "à¤": 5460,
      "Ġdut": 5461,
      "ĠFam": 5462,
      "Ġcurriculum": 5463,
      "32": 5464,
      "eria": 5465,
      "Ġemployees": 5466,
      "Ġ1999": 5467,
      ".|": 5468,
      "istan": 5469,
      "iled": 5470,
      "Ġhouses": 5471,
      "ĠJud": 5472,
      "Ġmedications": 5473,
      "Ġpictures": 5474,
      "icon": 5475,
      "Ġmuseum": 5476,
      "Ġharvest": 5477,
      "Ind": 5478,
      "ava": 5479,
      "Ġtasks": 5480,
      "ĠData": 5481,
      "Ġadding": 5482,
      "Ġargument": 5483,
      "Ġsecondary": 5484,
      "Ġcognitive": 5485,
      "Ġcolors": 5486,
      "Ġdepends": 5487,
      "Ġvehicle": 5488,
      "Ġprecise": 5489,
      "Ġshel": 5490,
      "long": 5491,
      "Ġregional": 5492,
      "Ġadvoc": 5493,
      "Ġaccepted": 5494,
      "ny": 5495,
      "pass": 5496,
      "zy": 5497,
      "Ġaccomp": 5498,
      "Ġsecure": 5499,
      "spec": 5500,
      "Ġpregnancy": 5501,
      "ini": 5502,
      "Ġfruits": 5503,
      "Ġpoet": 5504,
      "Ġdatabase": 5505,
      "46": 5506,
      "Ġcrim": 5507,
      "icks": 5508,
      "Ġimmun": 5509,
      "Ġdescribes": 5510,
      "ĠManagement": 5511,
      "Ġsets": 5512,
      "ĠHenry": 5513,
      "Im": 5514,
      "aria": 5515,
      "Ġnewsp": 5516,
      "ĠAnother": 5517,
      "Another": 5518,
      "Ġrecon": 5519,
      "ascular": 5520,
      "dden": 5521,
      "Ġintroduction": 5522,
      "ircraft": 5523,
      "Ġvillage": 5524,
      "Ġpretty": 5525,
      "Ġunlike": 5526,
      "ĠGroup": 5527,
      "ĠAlex": 5528,
      "Ġroots": 5529,
      "Ġdeliver": 5530,
      "My": 5531,
      "ĠCommon": 5532,
      "ibl": 5533,
      "Ġaccompl": 5534,
      "Ġapart": 5535,
      "DF": 5536,
      "Ġraise": 5537,
      "ĠReview": 5538,
      "Ġoriginally": 5539,
      "Ġexchange": 5540,
      "ĠDel": 5541,
      "Ġsurvival": 5542,
      "ĠAustralian": 5543,
      "Ġingred": 5544,
      "rust": 5545,
      "ificial": 5546,
      "fall": 5547,
      "Ġtraffic": 5548,
      "76": 5549,
      "hi": 5550,
      "Ġphone": 5551,
      "Ġregularly": 5552,
      "Ġfigures": 5553,
      "orrow": 5554,
      "Ġfrag": 5555,
      "Ġtiny": 5556,
      "umber": 5557,
      "Ġmillions": 5558,
      "Ġod": 5559,
      "Ġprinciple": 5560,
      "Ġrestrict": 5561,
      "ĠLibrary": 5562,
      "inn": 5563,
      "Ġfeelings": 5564,
      "Ġtroops": 5565,
      "ĠDan": 5566,
      "Sc": 5567,
      "Ġinterf": 5568,
      "Ġdecrease": 5569,
      "ĠInstead": 5570,
      "Ġ45": 5571,
      "Ġcalls": 5572,
      "ĠScient": 5573,
      "ĠUsing": 5574,
      "agues": 5575,
      "uilding": 5576,
      "ĠPsych": 5577,
      "Ġsudden": 5578,
      "Ġopened": 5579,
      "gment": 5580,
      "esity": 5581,
      "Ġtow": 5582,
      "clop": 5583,
      "Ġslowly": 5584,
      "Ġlatest": 5585,
      "ĠLabor": 5586,
      "ocratic": 5587,
      "inet": 5588,
      "ibilities": 5589,
      "Ġexpensive": 5590,
      "plicated": 5591,
      "Ġsan": 5592,
      "arr": 5593,
      "Ġcomprehensive": 5594,
      "ĠSum": 5595,
      "ĠNations": 5596,
      "ĠLike": 5597,
      "oster": 5598,
      "Ġcapable": 5599,
      "Ġinfected": 5600,
      "ada": 5601,
      "Ġobtained": 5602,
      "ĠFederal": 5603,
      "Ġmedium": 5604,
      "Ġsubstance": 5605,
      "ING": 5606,
      "Ġabsolute": 5607,
      "31": 5608,
      "Ġfell": 5609,
      "Ġancest": 5610,
      "Ġrecy": 5611,
      "Ġhunt": 5612,
      "Ġchann": 5613,
      "Ġera": 5614,
      "Ġrecognize": 5615,
      "Ġperce": 5616,
      "vironments": 5617,
      "prise": 5618,
      "Ġscholars": 5619,
      "Ġcrucial": 5620,
      "ĠCarol": 5621,
      "Ġleadership": 5622,
      "Ġprocedures": 5623,
      "ĠVirginia": 5624,
      "inations": 5625,
      "Ġsyndrome": 5626,
      "Ġpossibly": 5627,
      "pping": 5628,
      "bert": 5629,
      "Ġlands": 5630,
      "indu": 5631,
      "Ġnan": 5632,
      "Ġwarming": 5633,
      "Ġbrown": 5634,
      "Ġdiversity": 5635,
      "ĠDisc": 5636,
      "ĠNav": 5637,
      "Ġrefuge": 5638,
      "Ġprices": 5639,
      "Dr": 5640,
      "hist": 5641,
      "quit": 5642,
      "ĠEnvironmental": 5643,
      "Ġincl": 5644,
      "Ġclosed": 5645,
      "Ġapprec": 5646,
      "Ġagreement": 5647,
      "Ġadopted": 5648,
      "ston": 5649,
      "Ġcardi": 5650,
      "De": 5651,
      "ifies": 5652,
      "Ġstock": 5653,
      "anguage": 5654,
      "Ġlaun": 5655,
      ".;": 5656,
      "ĠTHE": 5657,
      "Do": 5658,
      "ĠTer": 5659,
      "Ġassemb": 5660,
      "ĠBet": 5661,
      "Ġsuffering": 5662,
      "Ġstored": 5663,
      "Ġrecovery": 5664,
      "Ġconstitution": 5665,
      "Ġsoldiers": 5666,
      "Ġlandscape": 5667,
      "Ġbot": 5668,
      "umin": 5669,
      "lements": 5670,
      "Ġdiam": 5671,
      "ota": 5672,
      "Ġflight": 5673,
      "rem": 5674,
      "Ġchapter": 5675,
      "Ġprotocol": 5676,
      "Ġdream": 5677,
      "abil": 5678,
      "Ġcreative": 5679,
      "Ġsuc": 5680,
      "Ġagencies": 5681,
      "Ġinflammation": 5682,
      "Ġtalking": 5683,
      "Other": 5684,
      "Ġbones": 5685,
      "ĠGood": 5686,
      "Ġdistrict": 5687,
      "Ġpossibility": 5688,
      "Ġ*": 5689,
      "struct": 5690,
      "ĠMicro": 5691,
      "ĠStudies": 5692,
      "Ġspeaking": 5693,
      "osal": 5694,
      "Ġimper": 5695,
      "acts": 5696,
      "Ġimmig": 5697,
      "Ġframework": 5698,
      "olve": 5699,
      "ĠBro": 5700,
      "Ġproducing": 5701,
      "Ġcomputers": 5702,
      "Ġwildlife": 5703,
      "ita": 5704,
      "ĠOx": 5705,
      "89": 5706,
      "ye": 5707,
      "add": 5708,
      "Ġinterview": 5709,
      "ĠTem": 5710,
      "Ġextract": 5711,
      "Ġhttps": 5712,
      "Ġvaluable": 5713,
      "Ġ31": 5714,
      "ĠMake": 5715,
      "Ġworse": 5716,
      "olester": 5717,
      "obe": 5718,
      "Ġgun": 5719,
      "Ġoutcomes": 5720,
      "Ġsurvive": 5721,
      "cture": 5722,
      "Ġmassive": 5723,
      "86": 5724,
      "kins": 5725,
      "Ġdriving": 5726,
      "ĠCommittee": 5727,
      "Ġtal": 5728,
      "ogue": 5729,
      "Ġdoctors": 5730,
      "Ġintake": 5731,
      "Ġguidelines": 5732,
      "asp": 5733,
      "ĠAtt": 5734,
      "Ġdeaths": 5735,
      "].": 5736,
      "Ġ1980": 5737,
      "Ġintellect": 5738,
      "ĠKh": 5739,
      "Ġsuffer": 5740,
      "Ġadministration": 5741,
      "49": 5742,
      "iability": 5743,
      "Ġmanaged": 5744,
      "Ġpossess": 5745,
      "rants": 5746,
      "reed": 5747,
      "Ġselection": 5748,
      "Ġscript": 5749,
      "Ġparam": 5750,
      "ĠExp": 5751,
      "idden": 5752,
      "85": 5753,
      "bing": 5754,
      "Ġble": 5755,
      "Ġsmart": 5756,
      "Ġrid": 5757,
      "ĠChic": 5758,
      "Ġsky": 5759,
      "Ġsensitive": 5760,
      "See": 5761,
      "rine": 5762,
      "Ġ1998": 5763,
      "Ġwire": 5764,
      "Ġagriculture": 5765,
      "ĠProv": 5766,
      "Ġrepeated": 5767,
      "LE": 5768,
      "ooth": 5769,
      "Ġextensive": 5770,
      "Ġtoler": 5771,
      "uke": 5772,
      "Ġdaughter": 5773,
      "Ġauthorities": 5774,
      "Ġsatell": 5775,
      "Ġequival": 5776,
      "ĠCamb": 5777,
      "ĠThose": 5778,
      "Ġrevealed": 5779,
      "Ġwants": 5780,
      "Ġunderstood": 5781,
      "ml": 5782,
      "Ġreject": 5783,
      "Ġedge": 5784,
      "wing": 5785,
      "ints": 5786,
      "tenance": 5787,
      "Ġappearance": 5788,
      "Ġprevention": 5789,
      "Ġdin": 5790,
      "Ġdecade": 5791,
      "Ġchart": 5792,
      "Ġlabel": 5793,
      "Ġhousing": 5794,
      "Ġcandid": 5795,
      "Ġnetworks": 5796,
      "Ġsell": 5797,
      "osa": 5798,
      "ocracy": 5799,
      "ship": 5800,
      "Ġunless": 5801,
      "Ġcoff": 5802,
      "ĠJoseph": 5803,
      "olesterol": 5804,
      "stream": 5805,
      "ĠItaly": 5806,
      "ropical": 5807,
      "Ġformat": 5808,
      "Ġgenerate": 5809,
      "Ġfacilit": 5810,
      "Ġnormally": 5811,
      "Ġanswers": 5812,
      "ona": 5813,
      "Ġsick": 5814,
      "exp": 5815,
      "Ġexpressed": 5816,
      "Re": 5817,
      "free": 5818,
      "anged": 5819,
      "Ġmountain": 5820,
      "zen": 5821,
      "Te": 5822,
      "Ġinfrastructure": 5823,
      "Ġacts": 5824,
      "Ġerror": 5825,
      "ĠKnow": 5826,
      "Ġphr": 5827,
      "Ġaw": 5828,
      "ĠEmpire": 5829,
      "organ": 5830,
      "Ġuniverse": 5831,
      "Ġcreates": 5832,
      "Ġmulti": 5833,
      "ĠSaf": 5834,
      "Ġplate": 5835,
      "Ġentirely": 5836,
      "Ġtail": 5837,
      "ĠTor": 5838,
      "ĠHam": 5839,
      "ĠDiv": 5840,
      "Ġfounded": 5841,
      "Ġinternet": 5842,
      "Ġ<": 5843,
      "igation": 5844,
      "Ġdescription": 5845,
      "tra": 5846,
      "Ġprem": 5847,
      "Ġreaders": 5848,
      "Ġmarriage": 5849,
      "Ġachieved": 5850,
      "HO": 5851,
      "Ġdust": 5852,
      "Ġsports": 5853,
      "itt": 5854,
      "ĠPM": 5855,
      "Ġrecip": 5856,
      "Ġbusinesses": 5857,
      "alysis": 5858,
      "Ġdiverse": 5859,
      "cling": 5860,
      "Ġhorse": 5861,
      ".âĢĻ": 5862,
      "Ġinches": 5863,
      "Ġ>": 5864,
      "ato": 5865,
      "Ġdedic": 5866,
      "Ġthor": 5867,
      "ĠPower": 5868,
      "Ġcars": 5869,
      "Ġminim": 5870,
      "Ġserver": 5871,
      "Ġfailed": 5872,
      "erent": 5873,
      "luding": 5874,
      "Ġlisted": 5875,
      "ansion": 5876,
      "Ġsurf": 5877,
      "Ġafford": 5878,
      "Ã¼": 5879,
      "ribed": 5880,
      "Ġdecline": 5881,
      "Go": 5882,
      "Ġrub": 5883,
      "Ġenvironments": 5884,
      "Ġexperiments": 5885,
      "Ġlifest": 5886,
      "Ġdestroyed": 5887,
      "tage": 5888,
      "Ġinsects": 5889,
      "Ġtun": 5890,
      "osm": 5891,
      "ĠGold": 5892,
      "athy": 5893,
      "Ġantibiot": 5894,
      "ki": 5895,
      "Ġvote": 5896,
      "Ġdesire": 5897,
      "Ġsurve": 5898,
      "Ġdepos": 5899,
      "ĠAnn": 5900,
      "Ġjourney": 5901,
      "roc": 5902,
      "ĠBur": 5903,
      "Ġchain": 5904,
      "Ġreader": 5905,
      "Ġprepare": 5906,
      "itative": 5907,
      "ĠGal": 5908,
      "agers": 5909,
      "eer": 5910,
      "Ġuns": 5911,
      "Ġbudget": 5912,
      "Ġax": 5913,
      "Ġlibrary": 5914,
      "Ġtwice": 5915,
      "icians": 5916,
      "Ġprincip": 5917,
      "Ġremaining": 5918,
      "ua": 5919,
      "Ġcorpor": 5920,
      "Ġadequ": 5921,
      "hemical": 5922,
      "Ġdigest": 5923,
      "ĠLeg": 5924,
      "ĠLong": 5925,
      "Ġamb": 5926,
      "Ġflag": 5927,
      "ĠEngine": 5928,
      "omach": 5929,
      "using": 5930,
      "Ġ2019": 5931,
      "Cont": 5932,
      "cher": 5933,
      "ctive": 5934,
      "Ġvaccine": 5935,
      "47": 5936,
      "En": 5937,
      "Ġwear": 5938,
      "ĠRome": 5939,
      "edu": 5940,
      "Ġgreatly": 5941,
      "Ġcritic": 5942,
      "Ġabund": 5943,
      "Ġassistance": 5944,
      "Ġobtain": 5945,
      "Ġdoubt": 5946,
      "Ġgall": 5947,
      "Ġfoundation": 5948,
      "Ġextended": 5949,
      "Ġimproving": 5950,
      "Ġworldwide": 5951,
      "Ġfly": 5952,
      "Ġgather": 5953,
      "Ġsuitable": 5954,
      "ĠVict": 5955,
      "Ġsentence": 5956,
      "no": 5957,
      "ĠViet": 5958,
      "Ġmedication": 5959,
      "âĢĺ": 5960,
      "Ġmarked": 5961,
      "Ġchoices": 5962,
      "Ġimplementation": 5963,
      "rors": 5964,
      "abits": 5965,
      "Ġshut": 5966,
      "DP": 5967,
      "Ġhus": 5968,
      "Ġtransition": 5969,
      "Ġenhance": 5970,
      "Ġfill": 5971,
      "elled": 5972,
      "uits": 5973,
      "ĠRad": 5974,
      "ypes": 5975,
      "ĠProfessor": 5976,
      "level": 5977,
      "....": 5978,
      "Ġtells": 5979,
      "ka": 5980,
      "Ġunknown": 5981,
      "Ġindeed": 5982,
      "Ġstruggle": 5983,
      "Ġwave": 5984,
      "arant": 5985,
      "ensions": 5986,
      "Ġinject": 5987,
      "Ġelectronic": 5988,
      "Ġengage": 5989,
      "Ġstarts": 5990,
      "ĠMag": 5991,
      "Ġstick": 5992,
      "Ġstages": 5993,
      "Ġopening": 5994,
      "ĠOnly": 5995,
      "inction": 5996,
      "Ġneck": 5997,
      "Ġsupplement": 5998,
      "Ġderived": 5999,
      "burg": 6000,
      "zil": 6001,
      "Ġaircraft": 6002,
      "Ġmur": 6003,
      "ĠPub": 6004,
      "normal": 6005,
      "ipping": 6006,
      "Ġlaboratory": 6007,
      "ĠAcademy": 6008,
      "Ġcircumstances": 6009,
      "CR": 6010,
      "ĠPeter": 6011,
      "Ġunp": 6012,
      "inking": 6013,
      "Ġharmful": 6014,
      "Ġ2020": 6015,
      "apping": 6016,
      "ĠSouthern": 6017,
      "Ġrank": 6018,
      "Ġtea": 6019,
      "Ġsupplies": 6020,
      "Ġstanding": 6021,
      "flow": 6022,
      "ĠLab": 6023,
      "Ġorganized": 6024,
      "hand": 6025,
      "Se": 6026,
      "Ġproduces": 6027,
      "Ġ300": 6028,
      "Ġmobile": 6029,
      "Us": 6030,
      "Ġsharing": 6031,
      "Ġissued": 6032,
      "ĠNorthern": 6033,
      "kes": 6034,
      "ĠYet": 6035,
      "âĢĻ,": 6036,
      "ĠStat": 6037,
      "Ġremind": 6038,
      "itan": 6039,
      "Ġfab": 6040,
      "Ġsupports": 6041,
      "being": 6042,
      "Ġgal": 6043,
      "Ġindex": 6044,
      "Ġpowers": 6045,
      "Ġsweet": 6046,
      "Ġgrav": 6047,
      "ĠCap": 6048,
      "CS": 6049,
      "Ġwww": 6050,
      "orter": 6051,
      "Ġacceler": 6052,
      "Ġseeing": 6053,
      "iform": 6054,
      "Ġvehicles": 6055,
      "Read": 6056,
      "ĠId": 6057,
      "ĠMa": 6058,
      "throp": 6059,
      "American": 6060,
      "Ġparalle": 6061,
      "Ġpull": 6062,
      "irty": 6063,
      "Ġtruly": 6064,
      "Ġthousand": 6065,
      "Ġfixed": 6066,
      "othe": 6067,
      "ĠHall": 6068,
      "Ġdiscipl": 6069,
      "Ġcalcium": 6070,
      "called": 6071,
      "Ã³": 6072,
      "itter": 6073,
      "Ġagency": 6074,
      "Ġlimits": 6075,
      "Ġsight": 6076,
      "Ġbear": 6077,
      "etime": 6078,
      "Ġintelligence": 6079,
      "Ġgenerated": 6080,
      "Ġstudying": 6081,
      "Ġphotograph": 6082,
      "65": 6083,
      "Ġaqu": 6084,
      "ĠBr": 6085,
      "Ġbroken": 6086,
      "Ġbehaviour": 6087,
      "Ġtransmission": 6088,
      "Ġ500": 6089,
      "Ġconsid": 6090,
      "ĠBre": 6091,
      "Ġattend": 6092,
      "ĠCancer": 6093,
      "Ġnine": 6094,
      "ĠThrough": 6095,
      "ih": 6096,
      "ĠJe": 6097,
      "Ġcircuit": 6098,
      "Ġinner": 6099,
      "icide": 6100,
      "ĠSl": 6101,
      "Ġknows": 6102,
      "Ġoptim": 6103,
      "Ġvessels": 6104,
      "mary": 6105,
      "Ġcatch": 6106,
      "utch": 6107,
      "ĠFe": 6108,
      "Ġmarried": 6109,
      "isters": 6110,
      "ctor": 6111,
      "Ġlots": 6112,
      "antly": 6113,
      "Ġfewer": 6114,
      "erals": 6115,
      "ĠSk": 6116,
      "oto": 6117,
      "ĠParis": 6118,
      "anda": 6119,
      "Ġphilosophy": 6120,
      "ioxide": 6121,
      "sey": 6122,
      "Ġships": 6123,
      "ĠSpain": 6124,
      "ett": 6125,
      "Ġremark": 6126,
      "Ġhappy": 6127,
      "Ġsuccessfully": 6128,
      "77": 6129,
      "but": 6130,
      "ĠIN": 6131,
      "Ġcolleagues": 6132,
      "Ġaccounts": 6133,
      "ĠEss": 6134,
      "from": 6135,
      "Ġ185": 6136,
      "then": 6137,
      "ĠOF": 6138,
      "Ġreplaced": 6139,
      "Ġroutine": 6140,
      "ĠGlobal": 6141,
      "Ġcloud": 6142,
      "Ġourselves": 6143,
      "Ġnecessarily": 6144,
      "born": 6145,
      "Ġemployment": 6146,
      "under": 6147,
      "ena": 6148,
      "Ġaf": 6149,
      "oned": 6150,
      "ora": 6151,
      "ĠStreet": 6152,
      "Ġfilled": 6153,
      "Ġopposite": 6154,
      "Ġ1970": 6155,
      "Ġwindow": 6156,
      "ĠSol": 6157,
      "ĠCult": 6158,
      "ĠBank": 6159,
      "Ġpref": 6160,
      "Ġchildhood": 6161,
      "Ġjoin": 6162,
      "Ã¶": 6163,
      "Ġsupposed": 6164,
      "Ġinjuries": 6165,
      "Ġroof": 6166,
      "Ġorganisms": 6167,
      "Ġelectron": 6168,
      "Ġfasc": 6169,
      "Ġnurs": 6170,
      "Ġshell": 6171,
      "Ġimmediate": 6172,
      "UR": 6173,
      "ĠPan": 6174,
      "Ġshift": 6175,
      "Ġlocations": 6176,
      "Ġfalse": 6177,
      "ĠDen": 6178,
      "Ġcarb": 6179,
      "wo": 6180,
      "Ġdomain": 6181,
      "Ġsteel": 6182,
      "Ġconsistent": 6183,
      "Ġacids": 6184,
      "ĠAbout": 6185,
      "Ġaudience": 6186,
      "igned": 6187,
      "Ġsucceed": 6188,
      "gent": 6189,
      "last": 6190,
      "aser": 6191,
      "teries": 6192,
      "ĠItalian": 6193,
      "Ġcourses": 6194,
      "Ġearthqu": 6195,
      "heast": 6196,
      "izer": 6197,
      "Ġlisten": 6198,
      "Stud": 6199,
      "Ġalle": 6200,
      "Ġplays": 6201,
      "Ġdoor": 6202,
      "Ġsequence": 6203,
      "ĠCamp": 6204,
      "ditionally": 6205,
      "ĠUSA": 6206,
      "Ġrepresented": 6207,
      "Ġwish": 6208,
      "Ġstomach": 6209,
      "Ġdecide": 6210,
      "Ġflav": 6211,
      "Ġcounty": 6212,
      "Ġeastern": 6213,
      "Ġcultures": 6214,
      "uation": 6215,
      "Ġyounger": 6216,
      "Ġinteraction": 6217,
      "Ġwalking": 6218,
      "Ġarchitecture": 6219,
      "Ġkidney": 6220,
      "eper": 6221,
      "Ġstroke": 6222,
      "Ġdefe": 6223,
      "ĠRob": 6224,
      "ĠReport": 6225,
      "Ġsod": 6226,
      "ĠParty": 6227,
      "Ġinstitution": 6228,
      "Ġpron": 6229,
      "Ġintervention": 6230,
      "ĠAny": 6231,
      "Ġgluc": 6232,
      "pet": 6233,
      "ĠHome": 6234,
      "cyclop": 6235,
      "Ġdomin": 6236,
      "Ġforests": 6237,
      "Ġcloser": 6238,
      "ĠMo": 6239,
      "bur": 6240,
      "Ġtall": 6241,
      "Ġenable": 6242,
      "Ġconcrete": 6243,
      "cel": 6244,
      "ashion": 6245,
      "Ġwaves": 6246,
      "Ġcarefully": 6247,
      "riting": 6248,
      "ĠClin": 6249,
      "Ġends": 6250,
      "Ġunus": 6251,
      "Ġcentre": 6252,
      "Ġsmoke": 6253,
      "Ġhydrogen": 6254,
      "Ġdifficulty": 6255,
      "Ġprofessionals": 6256,
      "ĠMad": 6257,
      "Ġturns": 6258,
      "Ġvariable": 6259,
      "gu": 6260,
      "Ġislands": 6261,
      "ĠExt": 6262,
      "Ġarrived": 6263,
      "Ġ1997": 6264,
      "ighter": 6265,
      "azing": 6266,
      "ĠIII": 6267,
      "Ġsolve": 6268,
      "Ġsoul": 6269,
      "Since": 6270,
      "Ġnerve": 6271,
      "Ġprompt": 6272,
      "Ġtransportation": 6273,
      "Ġunable": 6274,
      "ented": 6275,
      "ĠValley": 6276,
      "ĠChicago": 6277,
      "ĠOh": 6278,
      "ĠDisease": 6279,
      "Ġdedicated": 6280,
      "eers": 6281,
      "Ġgone": 6282,
      "Ġremote": 6283,
      "Ġmanufacturing": 6284,
      "heim": 6285,
      "lets": 6286,
      "Ġoutl": 6287,
      "Ġtwenty": 6288,
      "Ġsupporting": 6289,
      "Ġdebate": 6290,
      "Ġoverl": 6291,
      "Ġdiscrimination": 6292,
      "bran": 6293,
      "Ġbrand": 6294,
      "Ġexists": 6295,
      "Ġcomposition": 6296,
      "Ġindicates": 6297,
      "ocy": 6298,
      "onia": 6299,
      "orith": 6300,
      "Ġepid": 6301,
      "iration": 6302,
      "Ġasthma": 6303,
      "Ġfossil": 6304,
      "Ġreven": 6305,
      "zed": 6306,
      "Can": 6307,
      "ĠStudy": 6308,
      "Ġsimpl": 6309,
      "Ġgrew": 6310,
      "Ġpurchase": 6311,
      "ĠIP": 6312,
      "ums": 6313,
      "Ġbeneficial": 6314,
      "Ġconsumers": 6315,
      "Ġterritory": 6316,
      "Ġconventional": 6317,
      "ĠAC": 6318,
      "Ġcholesterol": 6319,
      "Ġstands": 6320,
      "ĠClimate": 6321,
      "Ġzone": 6322,
      "ĠIll": 6323,
      "Ġrising": 6324,
      "ĠMichael": 6325,
      "eenth": 6326,
      "ĠÐ": 6327,
      "Ġdioxide": 6328,
      "ola": 6329,
      "Ġmagnetic": 6330,
      "Ġhur": 6331,
      "Ġcolour": 6332,
      "Ġpermanent": 6333,
      "Ġmaintenance": 6334,
      "Ġlies": 6335,
      "umes": 6336,
      "ĠZeal": 6337,
      "Ġfunds": 6338,
      "Ġleaf": 6339,
      "Ġhypothes": 6340,
      "ĠSciences": 6341,
      "gans": 6342,
      "Ġrhy": 6343,
      "Ġdrawing": 6344,
      "stein": 6345,
      "79": 6346,
      "Ġvoc": 6347,
      "Ġexplo": 6348,
      "Ġmechanism": 6349,
      "Ġjoined": 6350,
      "Ġinhib": 6351,
      "Ġstable": 6352,
      "ĠRoyal": 6353,
      "Ġshot": 6354,
      "Ġclust": 6355,
      "Ġskill": 6356,
      "Ġpurs": 6357,
      "ĠAdminist": 6358,
      "ĠEnd": 6359,
      "Ġresponses": 6360,
      "Ġtons": 6361,
      "Ġmixed": 6362,
      "ĠTimes": 6363,
      "Ġsubs": 6364,
      "Ġoccasion": 6365,
      "ester": 6366,
      "Ġreserv": 6367,
      "ĠIndians": 6368,
      "Ġhandle": 6369,
      "fortunately": 6370,
      "Ġchosen": 6371,
      "ediatric": 6372,
      "ĠAst": 6373,
      "ĠPenn": 6374,
      "ifications": 6375,
      "Ġboost": 6376,
      "Ġwriter": 6377,
      "Ġultimately": 6378,
      "Ġaward": 6379,
      "Ġaccum": 6380,
      "Ġmice": 6381,
      "rd": 6382,
      "ĠCare": 6383,
      "Ġusage": 6384,
      "Ġaccident": 6385,
      "Ġhealthcare": 6386,
      "ĠSecurity": 6387,
      "itual": 6388,
      "Ġyield": 6389,
      "Ġprove": 6390,
      "xts": 6391,
      "Ġtaste": 6392,
      "ĠMer": 6393,
      "Ġneuro": 6394,
      "Ġhoriz": 6395,
      "Ġath": 6396,
      "Ġpercentage": 6397,
      "Ġcircle": 6398,
      "Ġcommunicate": 6399,
      "ĠEth": 6400,
      "Ġdownload": 6401,
      "Ġguarant": 6402,
      "Ġdensity": 6403,
      "Ġcultiv": 6404,
      "Ġwhereas": 6405,
      "Ġinstruments": 6406,
      "Ġvulnerable": 6407,
      "Ġcustomers": 6408,
      "Ġcomparison": 6409,
      "orous": 6410,
      "ĠMill": 6411,
      "Ġattached": 6412,
      "Ġmatters": 6413,
      "ĠRichard": 6414,
      "comm": 6415,
      "hop": 6416,
      "tic": 6417,
      "erior": 6418,
      "Ġpus": 6419,
      "inson": 6420,
      "ols": 6421,
      "peror": 6422,
      "Ġobservations": 6423,
      "Ġfighting": 6424,
      "ugh": 6425,
      "how": 6426,
      "Ġwitness": 6427,
      "uter": 6428,
      "Ġbutter": 6429,
      "ĠZealand": 6430,
      "inity": 6431,
      "ĠBrown": 6432,
      "ĠNut": 6433,
      "hered": 6434,
      "rovers": 6435,
      "Ġraw": 6436,
      "Ġcomments": 6437,
      "Ġnegot": 6438,
      "lder": 6439,
      "Ġexplanation": 6440,
      "Ġspok": 6441,
      "Ġresolution": 6442,
      "ĠBrazil": 6443,
      "Ġborder": 6444,
      "Ġhem": 6445,
      "Ġrequest": 6446,
      "ĠExpl": 6447,
      "Ġcoffee": 6448,
      "ĠKingdom": 6449,
      "Ġmac": 6450,
      "Ġhabits": 6451,
      "Ġscene": 6452,
      "aud": 6453,
      "ĠTime": 6454,
      "ĠWik": 6455,
      "Ġmanif": 6456,
      "Ġregulations": 6457,
      "Ġpra": 6458,
      "ĠCat": 6459,
      "Ġfold": 6460,
      "Ġestimate": 6461,
      "Ġphysics": 6462,
      "Ġlifestyle": 6463,
      "Ġresulted": 6464,
      "opic": 6465,
      "ĠGeorg": 6466,
      "while": 6467,
      "LA": 6468,
      "ĠNatural": 6469,
      "earchers": 6470,
      "Ġ36": 6471,
      "Ġpolitics": 6472,
      "Ġparticipate": 6473,
      "ivery": 6474,
      "Ġrelation": 6475,
      "Ġequivalent": 6476,
      "ĠBab": 6477,
      "Ġbiggest": 6478,
      "yal": 6479,
      "Ġemployed": 6480,
      "Ġtrained": 6481,
      "Ġobesity": 6482,
      "abul": 6483,
      "usal": 6484,
      "Ġshop": 6485,
      "ĠVis": 6486,
      "een": 6487,
      "such": 6488,
      "Ġdental": 6489,
      "05": 6490,
      "ĠFree": 6491,
      "EP": 6492,
      "Ġbread": 6493,
      "ĠPop": 6494,
      "Ġrelax": 6495,
      "Ġsignals": 6496,
      "Ġratio": 6497,
      "pan": 6498,
      "Ġteen": 6499,
      "Ġprev": 6500,
      "Ġindependence": 6501,
      "rat": 6502,
      "omer": 6503,
      "Ġdemonstrated": 6504,
      "Ġacknow": 6505,
      "Ġemotions": 6506,
      "ĠColumbia": 6507,
      "otion": 6508,
      "Ġpersist": 6509,
      "ĠBoard": 6510,
      "Ġpregnant": 6511,
      "ĠCy": 6512,
      "Ġexamine": 6513,
      "Ġunderlying": 6514,
      "Ġfunctional": 6515,
      "Ġlayers": 6516,
      "Ġfract": 6517,
      "ĠSing": 6518,
      "ups": 6519,
      "Ġcards": 6520,
      "ĠGet": 6521,
      "produ": 6522,
      "Ġnone": 6523,
      "Ġdistur": 6524,
      "Ġkit": 6525,
      "irds": 6526,
      "Ġprohib": 6527,
      "Ġwilling": 6528,
      "struction": 6529,
      "Ġwhatever": 6530,
      "Ġmolecules": 6531,
      "bour": 6532,
      "ĠCa": 6533,
      "espread": 6534,
      "Ġcrow": 6535,
      "teen": 6536,
      "Ġ1996": 6537,
      "Pe": 6538,
      "rite": 6539,
      "adder": 6540,
      "Ġnearby": 6541,
      "Int": 6542,
      "ĠHaw": 6543,
      "Ġcontamin": 6544,
      "Ġmeters": 6545,
      "Ġelection": 6546,
      "ĠAdd": 6547,
      "Ġtrip": 6548,
      "uh": 6549,
      "Ġbridge": 6550,
      "Ġneither": 6551,
      "phone": 6552,
      "stract": 6553,
      "Ġinsulin": 6554,
      "ĠAgricult": 6555,
      "isk": 6556,
      "Ġchrom": 6557,
      "Ġ1960": 6558,
      "sen": 6559,
      "ĠRom": 6560,
      "Ġsections": 6561,
      "Ġconnections": 6562,
      "ourage": 6563,
      "95": 6564,
      "ĠDet": 6565,
      "ĠOcean": 6566,
      "Ġcompounds": 6567,
      "Ġwasn": 6568,
      "Ġrice": 6569,
      "Ġlegislation": 6570,
      "ĠRevolution": 6571,
      "Ġholds": 6572,
      "Ġcamera": 6573,
      "Ġconclusion": 6574,
      "Ġhistoric": 6575,
      "craft": 6576,
      "Ġille": 6577,
      "Ġmild": 6578,
      "Ġestimates": 6579,
      "Ġethnic": 6580,
      "ĠScott": 6581,
      "Ġcontained": 6582,
      "Ġgram": 6583,
      "ribe": 6584,
      "Ġpainting": 6585,
      "ployment": 6586,
      "Ġforth": 6587,
      "Ġregul": 6588,
      "Ġconfidence": 6589,
      "Ġuniversity": 6590,
      "Ġentered": 6591,
      "Ġdefine": 6592,
      "Ġcommitted": 6593,
      "ĠFrank": 6594,
      "ictionary": 6595,
      "Ġsacr": 6596,
      "Ġintellectual": 6597,
      "Don": 6598,
      "Ġholid": 6599,
      "ults": 6600,
      "Ġtraum": 6601,
      "Ġdrawn": 6602,
      "va": 6603,
      "Ġgap": 6604,
      "ĠExper": 6605,
      "cul": 6606,
      "Ġcalories": 6607,
      "ala": 6608,
      "Ġdoi": 6609,
      "Ġvoltage": 6610,
      "ĠWhe": 6611,
      "arsh": 6612,
      "scale": 6613,
      "Ġrecognition": 6614,
      "Ġdiagnosed": 6615,
      "Ġbreathing": 6616,
      "43": 6617,
      "Ġpreval": 6618,
      "Ġlegs": 6619,
      "itudes": 6620,
      "Ġpsychological": 6621,
      "Ġboys": 6622,
      "ditional": 6623,
      "Not": 6624,
      "riers": 6625,
      "Ġregist": 6626,
      "Ġpassage": 6627,
      "Ġmechanisms": 6628,
      "imens": 6629,
      "arn": 6630,
      "earing": 6631,
      "Ġlegisl": 6632,
      "OL": 6633,
      "Ġcup": 6634,
      "abled": 6635,
      "Ġrow": 6636,
      "Ġ75": 6637,
      "Ġcart": 6638,
      "Ġmanip": 6639,
      "azine": 6640,
      "Ġfrequent": 6641,
      "Ġinstructions": 6642,
      "ĠFort": 6643,
      "Ġspaces": 6644,
      "Ġcutting": 6645,
      "Ġbehaviors": 6646,
      "umps": 6647,
      "agon": 6648,
      "Ġpublication": 6649,
      "ĠServices": 6650,
      "Ġnoise": 6651,
      "Ġalgorith": 6652,
      "Ġcompens": 6653,
      "87": 6654,
      "ĠGuide": 6655,
      "Ġfabric": 6656,
      "01": 6657,
      "alm": 6658,
      "ĠWood": 6659,
      "plant": 6660,
      "Ġagreed": 6661,
      "Ġdelay": 6662,
      "Ġimprovement": 6663,
      "Ġbattery": 6664,
      "Ġdemonstrate": 6665,
      "Ġcriminal": 6666,
      "ĠMen": 6667,
      "Ġtrials": 6668,
      "Ġtub": 6669,
      "Ġtexts": 6670,
      "Ġarrest": 6671,
      "Ġsheet": 6672,
      "ittle": 6673,
      "oln": 6674,
      "ĠDesign": 6675,
      "ĠMD": 6676,
      "ĠPy": 6677,
      "Ġhero": 6678,
      "Ġswim": 6679,
      "Ġaer": 6680,
      "etics": 6681,
      "ĠPet": 6682,
      "Ġgenerations": 6683,
      "Ġ1995": 6684,
      "Ġmicrob": 6685,
      "Ġviruses": 6686,
      "icious": 6687,
      "Ġrecept": 6688,
      "Ġdeclared": 6689,
      "ĠKeep": 6690,
      "fish": 6691,
      "Ġlymph": 6692,
      "Ġended": 6693,
      "Ġstring": 6694,
      "Ġdanger": 6695,
      "Ġdollars": 6696,
      "Ġmood": 6697,
      "Ġsmoking": 6698,
      "Let": 6699,
      "Ġtheories": 6700,
      "aya": 6701,
      "Ġoblig": 6702,
      "Ġapproved": 6703,
      "Ġmosquit": 6704,
      "Ġglucose": 6705,
      "Ġsail": 6706,
      "Ġmand": 6707,
      "Ġexercises": 6708,
      "Ġske": 6709,
      "Ġbeings": 6710,
      "irt": 6711,
      "Ġye": 6712,
      "ĠNative": 6713,
      "Ġruns": 6714,
      "Ġburning": 6715,
      "Ġcoastal": 6716,
      "hav": 6717,
      "rary": 6718,
      "word": 6719,
      "Ġmaps": 6720,
      "Ġveter": 6721,
      "Ġpounds": 6722,
      "ifts": 6723,
      "ait": 6724,
      "rey": 6725,
      "ĠAge": 6726,
      "ĠScot": 6727,
      "Of": 6728,
      "Ġfer": 6729,
      "asters": 6730,
      "Ġexpansion": 6731,
      "ĠKorea": 6732,
      "top": 6733,
      "Ġpup": 6734,
      "Ġpapers": 6735,
      "icit": 6736,
      "sets": 6737,
      "Ġorient": 6738,
      "usiness": 6739,
      "Ġcomposed": 6740,
      "itely": 6741,
      "ohyd": 6742,
      "Ġserving": 6743,
      "Ġenemy": 6744,
      "Ġped": 6745,
      "Ġforget": 6746,
      "Ġclaimed": 6747,
      "isdom": 6748,
      "operation": 6749,
      "Ġmatch": 6750,
      "Ġcompetition": 6751,
      "Ġmolecular": 6752,
      "rial": 6753,
      "Ġmode": 6754,
      "Ġartists": 6755,
      "Ġentry": 6756,
      "Ġdestruction": 6757,
      "Ġparallel": 6758,
      "Figure": 6759,
      "anes": 6760,
      "Ġongoing": 6761,
      "Ġahead": 6762,
      "ĠHave": 6763,
      "Ġsole": 6764,
      "ĠVictor": 6765,
      "Ġpoem": 6766,
      "Ġdebt": 6767,
      "hent": 6768,
      "Ġholding": 6769,
      "BS": 6770,
      "Ġspending": 6771,
      "Ġwidespread": 6772,
      "41": 6773,
      "esis": 6774,
      "idity": 6775,
      "Ġscan": 6776,
      "iodiversity": 6777,
      "Ġgreenhouse": 6778,
      "First": 6779,
      "Lear": 6780,
      "Ġ^": 6781,
      "Ġhun": 6782,
      "Ġvictims": 6783,
      "Rec": 6784,
      "ĠEastern": 6785,
      "liest": 6786,
      "CD": 6787,
      "Ġrelief": 6788,
      "Ġblow": 6789,
      "acher": 6790,
      "Ġarrange": 6791,
      "IL": 6792,
      "ĠGard": 6793,
      "asty": 6794,
      "ĠConn": 6795,
      "Ġtissues": 6796,
      "Ġbeliefs": 6797,
      "Ġstreet": 6798,
      "Ġsomewhat": 6799,
      "Ġeveryday": 6800,
      "reated": 6801,
      "Ġment": 6802,
      "ĠEc": 6803,
      "Ġpositions": 6804,
      "Ġmaintaining": 6805,
      "Note": 6806,
      "TM": 6807,
      "Ġdepart": 6808,
      "stone": 6809,
      "urrent": 6810,
      "Ġflo": 6811,
      "Ġpanel": 6812,
      "66": 6813,
      "Bl": 6814,
      "fit": 6815,
      "itivity": 6816,
      "Ġfro": 6817,
      "Ġplane": 6818,
      "uts": 6819,
      "Ġalter": 6820,
      "Ġblocks": 6821,
      "Ġconstructed": 6822,
      "orph": 6823,
      "hesis": 6824,
      "Ġsettings": 6825,
      "Ġundert": 6826,
      "Ġearn": 6827,
      "everal": 6828,
      "ĠâĨ": 6829,
      "ulty": 6830,
      "Ġrocks": 6831,
      "Ġterror": 6832,
      "Ġmerely": 6833,
      "Ġchick": 6834,
      "nee": 6835,
      "Ġoperate": 6836,
      "Ġsignificance": 6837,
      "Ġphoto": 6838,
      "ĠEqu": 6839,
      "ĠForm": 6840,
      "ĠStar": 6841,
      "Ġsought": 6842,
      "Ġneighborhood": 6843,
      "Ġhusband": 6844,
      "ether": 6845,
      "iah": 6846,
      "ĠColor": 6847,
      "Ġdamaged": 6848,
      "Ġinteractions": 6849,
      "Ġintegrated": 6850,
      "Ġartificial": 6851,
      "Ġcapture": 6852,
      "ĠÎ": 6853,
      "Ġtel": 6854,
      "Ġrivers": 6855,
      "weight": 6856,
      "Ġrealize": 6857,
      "Ġindustries": 6858,
      "ano": 6859,
      "Ġdrain": 6860,
      "opes": 6861,
      "oston": 6862,
      "Ġassociation": 6863,
      "Ġpair": 6864,
      "roud": 6865,
      "Ġoutbre": 6866,
      "Comp": 6867,
      "Ġphysician": 6868,
      "ĠStep": 6869,
      "Ġpresentation": 6870,
      "Ġparticipation": 6871,
      "Ġbrings": 6872,
      "Ġtrouble": 6873,
      "42": 6874,
      "Ġconven": 6875,
      "Ġcrew": 6876,
      "ĠEarly": 6877,
      "Ġreactions": 6878,
      "Ġrarely": 6879,
      "Even": 6880,
      "Ġshad": 6881,
      "aked": 6882,
      "Ġtut": 6883,
      "Ġfeeding": 6884,
      "Ġmachines": 6885,
      "ĠMartin": 6886,
      "OC": 6887,
      "Over": 6888,
      "Ġcrime": 6889,
      "Ġfeedback": 6890,
      "reek": 6891,
      "Ġfourth": 6892,
      "Ġcats": 6893,
      "ĠBig": 6894,
      "Ġevaluation": 6895,
      "Ġlaunched": 6896,
      "cons": 6897,
      "ĠAtlantic": 6898,
      "herent": 6899,
      "ĠProp": 6900,
      "ella": 6901,
      "Ġassume": 6902,
      "aine": 6903,
      "Ġzero": 6904,
      "forcement": 6905,
      "Ġcontrovers": 6906,
      "Ġinstalled": 6907,
      "Ġwriters": 6908,
      "Ġdelivery": 6909,
      "Ġdivision": 6910,
      "Ġphosph": 6911,
      "Ġfever": 6912,
      "Ġmarkets": 6913,
      "----": 6914,
      "Ġcryst": 6915,
      "Ġdisaster": 6916,
      "ishment": 6917,
      "Ġdefend": 6918,
      "making": 6919,
      "Ġboy": 6920,
      "Ġ150": 6921,
      "Ġturning": 6922,
      "Ġframe": 6923,
      "Ġorgans": 6924,
      "Ġseemed": 6925,
      "Ġcategory": 6926,
      "Ġputting": 6927,
      "ĠCarolina": 6928,
      "Ġfiber": 6929,
      "73": 6930,
      "eless": 6931,
      "Ġfulf": 6932,
      "gov": 6933,
      "Ġlake": 6934,
      "Ġ400": 6935,
      "Ġtransp": 6936,
      "Ġseeking": 6937,
      "Ġdefense": 6938,
      "Ġinvolving": 6939,
      "ĠChange": 6940,
      "Ġstrongly": 6941,
      "Ġconsiderable": 6942,
      "Ġjudge": 6943,
      "ĠAngel": 6944,
      "Ġbio": 6945,
      "ĠDig": 6946,
      "ĠDiff": 6947,
      "ureau": 6948,
      "Ġreliable": 6949,
      "Ġarchae": 6950,
      "IR": 6951,
      "Ġcolumn": 6952,
      "ĠOrganization": 6953,
      "ĠDistrict": 6954,
      "IM": 6955,
      "ĠTake": 6956,
      "ĠIran": 6957,
      "Ġcovers": 6958,
      "Ġsmooth": 6959,
      "Ġcategories": 6960,
      "Ġweapons": 6961,
      "ĠFather": 6962,
      "Ġroute": 6963,
      "car": 6964,
      "itamin": 6965,
      "osion": 6966,
      "yles": 6967,
      "Ġobjective": 6968,
      "Ġthanks": 6969,
      "84": 6970,
      "ounded": 6971,
      "Ġvisitors": 6972,
      "abulary": 6973,
      "Ġvs": 6974,
      "Ġpoison": 6975,
      "Ġaccessible": 6976,
      "Ġfu": 6977,
      "Ġrig": 6978,
      "Ġopposed": 6979,
      "Ġbiology": 6980,
      "%)": 6981,
      "ĠPract": 6982,
      "Ġbreeding": 6983,
      "ĠDirector": 6984,
      "Ġloved": 6985,
      "ĠHoly": 6986,
      "Ġmeal": 6987,
      "Ġfashion": 6988,
      "Ġworry": 6989,
      "Ġindicated": 6990,
      "Ġembry": 6991,
      "Ġminute": 6992,
      "Ġplayers": 6993,
      "Ġproportion": 6994,
      "Ġkilomet": 6995,
      "ĠAccess": 6996,
      "ocation": 6997,
      "Ġaband": 6998,
      "Ġplus": 6999,
      "Ġmembran": 7000,
      "Ġreceiving": 7001,
      "Ġconsumer": 7002,
      "ĠEdward": 7003,
      "Ġguidance": 7004,
      "yroid": 7005,
      "Ġsigned": 7006,
      "ĠMoon": 7007,
      "Ġannounced": 7008,
      "aska": 7009,
      "Ġmissing": 7010,
      "Ġingredients": 7011,
      "Your": 7012,
      "ocial": 7013,
      "ĠFamily": 7014,
      "Ġmeth": 7015,
      "ishop": 7016,
      "Ġcontemporary": 7017,
      "igan": 7018,
      "Ġelected": 7019,
      "Ġescape": 7020,
      "Ġaims": 7021,
      "iner": 7022,
      "inally": 7023,
      "Ġneur": 7024,
      "ĠLar": 7025,
      "Ġdesigns": 7026,
      "Once": 7027,
      "Ġstrict": 7028,
      "Ġvolcan": 7029,
      "Ġnest": 7030,
      "ĠJac": 7031,
      "Ġresident": 7032,
      "Ġdefect": 7033,
      "incoln": 7034,
      "Ġprogramming": 7035,
      "Ġmoves": 7036,
      "Ġchallenging": 7037,
      "IA": 7038,
      "vard": 7039,
      "Ġsla": 7040,
      "Qu": 7041,
      "alls": 7042,
      "ounter": 7043,
      "Ġevil": 7044,
      "Ġasking": 7045,
      "ĠWord": 7046,
      "Ġcenters": 7047,
      "Ġmoisture": 7048,
      "Ġcash": 7049,
      "Ġtight": 7050,
      "Ġarts": 7051,
      "Ġproved": 7052,
      "Ġnitrogen": 7053,
      "Ġtheme": 7054,
      "ĠHeb": 7055,
      "Ġcarrying": 7056,
      "oples": 7057,
      "Ġjump": 7058,
      "Ġrepair": 7059,
      "Ġdistributed": 7060,
      "Ġplanned": 7061,
      "Ġ1994": 7062,
      "Ġhonor": 7063,
      "Ġprincipal": 7064,
      "ĠFace": 7065,
      "Ġminerals": 7066,
      "Ġinfluenced": 7067,
      "Ġwait": 7068,
      "Ġ65": 7069,
      "Ġcav": 7070,
      "ĠDar": 7071,
      "Ġagents": 7072,
      "ĠSym": 7073,
      "ĠNetwork": 7074,
      "gs": 7075,
      "Ġinher": 7076,
      "Ġunion": 7077,
      "including": 7078,
      "Ġsubstances": 7079,
      "rin": 7080,
      "ĠAgency": 7081,
      "heric": 7082,
      "Ġorbit": 7083,
      "aka": 7084,
      "Ġru": 7085,
      "isco": 7086,
      "ĠAS": 7087,
      "Ġitem": 7088,
      "Ġpartner": 7089,
      "Ġdependent": 7090,
      "Every": 7091,
      "Ġtank": 7092,
      "ĠCast": 7093,
      "Ġfacility": 7094,
      "Ġslavery": 7095,
      "IG": 7096,
      "rooms": 7097,
      "cyclopedia": 7098,
      "mes": 7099,
      "Ġdischar": 7100,
      "Ġoutcome": 7101,
      "Ġ32": 7102,
      "Ġchest": 7103,
      "Ġfairly": 7104,
      "ude": 7105,
      "lishing": 7106,
      "ixture": 7107,
      "ĠOxford": 7108,
      "Ġelectro": 7109,
      "Ġrely": 7110,
      "roduction": 7111,
      "Ġbringing": 7112,
      "olesc": 7113,
      "Ġheating": 7114,
      "Ġimagine": 7115,
      "ĠIV": 7116,
      "Ġring": 7117,
      "orses": 7118,
      "erman": 7119,
      "Ġattempts": 7120,
      "ĠMel": 7121,
      "ĠLib": 7122,
      "eren": 7123,
      "Ġcombat": 7124,
      "ĠSecret": 7125,
      "Ġrecommendations": 7126,
      "Ġfavorite": 7127,
      "ĠIns": 7128,
      "ĠChristmas": 7129,
      "72": 7130,
      "ĠLanguage": 7131,
      "ĠThough": 7132,
      "Ġknowing": 7133,
      "Ġengaged": 7134,
      "Ġmaintained": 7135,
      "IP": 7136,
      "Ã¢": 7137,
      "dule": 7138,
      "Ġequally": 7139,
      "ĠMinister": 7140,
      "Ġ1993": 7141,
      "Ġcaptured": 7142,
      "Ġpassing": 7143,
      "Med": 7144,
      "Ġwarning": 7145,
      "Ġconstantly": 7146,
      "Ġgained": 7147,
      "Ġcomplicated": 7148,
      "Ġ;": 7149,
      "Ġtheore": 7150,
      "Ġcod": 7151,
      "ĠCreat": 7152,
      "ĠOtt": 7153,
      "Ġmeasurements": 7154,
      "Ġconversation": 7155,
      "ricts": 7156,
      "Ġstructural": 7157,
      "Ġsharp": 7158,
      "ĠOpen": 7159,
      "htt": 7160,
      "gers": 7161,
      "ĠEffect": 7162,
      "Ġimplications": 7163,
      "Ġencouraged": 7164,
      "ĠBill": 7165,
      "Ġessentially": 7166,
      "Ġfinished": 7167,
      "ĠSwed": 7168,
      "rays": 7169,
      "icted": 7170,
      "ega": 7171,
      "li": 7172,
      "itarian": 7173,
      "Ġroughly": 7174,
      "Ġcattle": 7175,
      "Ġtraditions": 7176,
      "health": 7177,
      "ĠHy": 7178,
      "ĠWhere": 7179,
      "Ġintense": 7180,
      "Ġedition": 7181,
      "Ġmining": 7182,
      "Ġcollaboration": 7183,
      "Ġran": 7184,
      "Ġinformed": 7185,
      "Ġfacing": 7186,
      "Ġphotos": 7187,
      "Ġbranches": 7188,
      "Ġphenomenon": 7189,
      "Ġlie": 7190,
      "Ġbabies": 7191,
      "71": 7192,
      "pd": 7193,
      "ĠType": 7194,
      "Ġstre": 7195,
      "Ġflour": 7196,
      "Ġtranslation": 7197,
      "ima": 7198,
      "Ġmessages": 7199,
      "Ġbanks": 7200,
      "Ġbeauty": 7201,
      "Ġmathematics": 7202,
      "06": 7203,
      "ĠDespite": 7204,
      "ĠWindows": 7205,
      "thm": 7206,
      "Ġadvert": 7207,
      "Ġempt": 7208,
      "ĠResources": 7209,
      "Ġsatisf": 7210,
      "Or": 7211,
      "outs": 7212,
      "Ġscar": 7213,
      "Ġparas": 7214,
      "Ġradical": 7215,
      "bles": 7216,
      "ĠAP": 7217,
      "occ": 7218,
      "Today": 7219,
      "osh": 7220,
      "Ġincred": 7221,
      "Ġinsert": 7222,
      "ĠPolic": 7223,
      "inder": 7224,
      "Ġassigned": 7225,
      "Ġstimul": 7226,
      "Ġwithd": 7227,
      "Ġwheat": 7228,
      "Ġdecor": 7229,
      "iological": 7230,
      "Ġbath": 7231,
      "ĠAsian": 7232,
      "Ġadequate": 7233,
      "ĠJeff": 7234,
      "Ġforg": 7235,
      "Ġcompare": 7236,
      "rowing": 7237,
      "Ġsuperior": 7238,
      "Ġsuffered": 7239,
      "Ġunusual": 7240,
      "ĠNov": 7241,
      "Ġstatistics": 7242,
      "rass": 7243,
      "sis": 7244,
      "Ġfurn": 7245,
      "ulpt": 7246,
      "iva": 7247,
      "Ġtract": 7248,
      "Ġevaluate": 7249,
      "Ġconfirmed": 7250,
      "Ġmetabol": 7251,
      "Ġsurfaces": 7252,
      "ĠFund": 7253,
      "Ġordered": 7254,
      "medi": 7255,
      "Ġexclus": 7256,
      "ĠMoreover": 7257,
      "Ġdent": 7258,
      "ĠSometimes": 7259,
      "iratory": 7260,
      "ĠEU": 7261,
      "iana": 7262,
      "Ġexperimental": 7263,
      "Ġrenewable": 7264,
      "ĠPen": 7265,
      "example": 7266,
      "heimer": 7267,
      "ĠSat": 7268,
      "ollowing": 7269,
      "Ġclothing": 7270,
      "Ġinfect": 7271,
      "Ġdepartment": 7272,
      "Ġimplemented": 7273,
      "Ġgradually": 7274,
      "Ġbreath": 7275,
      "Su": 7276,
      "ĠEp": 7277,
      "Ġcompris": 7278,
      "Ġcontrols": 7279,
      "Ġcopper": 7280,
      "bar": 7281,
      "oric": 7282,
      "ĠAcc": 7283,
      "Ġblind": 7284,
      "Ġeffectiveness": 7285,
      "Ġsubsequent": 7286,
      "pes": 7287,
      "Ġrect": 7288,
      "Ġproof": 7289,
      "ĠList": 7290,
      "Ġacres": 7291,
      "Ġcareful": 7292,
      "Ġofficers": 7293,
      "Ġshapes": 7294,
      "airy": 7295,
      "Ġthreats": 7296,
      "Ġinterpretation": 7297,
      "Ġshock": 7298,
      "ooking": 7299,
      "Ġ1992": 7300,
      "Ġgalax": 7301,
      "etary": 7302,
      "Ġconqu": 7303,
      "ograp": 7304,
      "ĠBefore": 7305,
      "Ġnervous": 7306,
      "Le": 7307,
      "ĠNaz": 7308,
      "Ġautism": 7309,
      "Ġgranted": 7310,
      "Ġdemands": 7311,
      "Ġfatty": 7312,
      "Ġmountains": 7313,
      "iary": 7314,
      "ivered": 7315,
      "Ġvac": 7316,
      "Ġmaybe": 7317,
      "Ġfemales": 7318,
      "ĠWall": 7319,
      "'m": 7320,
      "Because": 7321,
      "ading": 7322,
      "ĠPC": 7323,
      "apse": 7324,
      "Ġoverw": 7325,
      "Ġearliest": 7326,
      "Ġowner": 7327,
      "Ġlaid": 7328,
      "Ġinterpre": 7329,
      "oured": 7330,
      "ĠMS": 7331,
      "ĠUr": 7332,
      "uset": 7333,
      "chen": 7334,
      "Ġ||": 7335,
      "Ġproceed": 7336,
      "Ġsup": 7337,
      "UT": 7338,
      "ĠNon": 7339,
      "ommod": 7340,
      "64": 7341,
      "esides": 7342,
      "Ġfest": 7343,
      "igue": 7344,
      "ĠIss": 7345,
      "ĠHill": 7346,
      "Ġreduces": 7347,
      "ĠChristians": 7348,
      "Ġgut": 7349,
      "Ġdealing": 7350,
      "ĠBoston": 7351,
      "riz": 7352,
      "Ġplenty": 7353,
      "ĠVer": 7354,
      "Ġconcluded": 7355,
      "81": 7356,
      "Ġseconds": 7357,
      "Ġfed": 7358,
      "ells": 7359,
      "ritis": 7360,
      "Ġproven": 7361,
      "Ġpreventing": 7362,
      "%.": 7363,
      "ounce": 7364,
      "Ġstead": 7365,
      "ĠWho": 7366,
      "Ġsession": 7367,
      "ventions": 7368,
      "82": 7369,
      "ani": 7370,
      "Ġusual": 7371,
      "Ġswitch": 7372,
      "Ġconcerning": 7373,
      "Ġcooking": 7374,
      "fl": 7375,
      "Â·": 7376,
      "Ġbond": 7377,
      "achuset": 7378,
      "class": 7379,
      "Ġtargets": 7380,
      "Ġabnormal": 7381,
      "Ġdesired": 7382,
      "achusetts": 7383,
      "83": 7384,
      "Ġrespectively": 7385,
      "ĠAdministration": 7386,
      "real": 7387,
      "Ġdates": 7388,
      "Ġhole": 7389,
      "aded": 7390,
      "Ġmodified": 7391,
      "azon": 7392,
      "Ġdifficulties": 7393,
      "ĠLead": 7394,
      "Ġstronger": 7395,
      "oir": 7396,
      "Ġjur": 7397,
      "Ġaccuracy": 7398,
      "UN": 7399,
      "bra": 7400,
      "Ġcab": 7401,
      "Ġasc": 7402,
      "Ġfarming": 7403,
      "Ġvirtual": 7404,
      "Ġsettlement": 7405,
      "ĠFar": 7406,
      "Ġmineral": 7407,
      "ĠAmong": 7408,
      "Ġirrit": 7409,
      "onym": 7410,
      "Ġvarieties": 7411,
      "Ġartist": 7412,
      "Ġspectrum": 7413,
      "ĠCre": 7414,
      "ĠDutch": 7415,
      "ĠYear": 7416,
      "ĠMedia": 7417,
      "vin": 7418,
      "Ġdeeper": 7419,
      "Ġpresents": 7420,
      "Ġlaunch": 7421,
      "ĠSpecial": 7422,
      "ipedia": 7423,
      "oven": 7424,
      "Ġpharm": 7425,
      "Ġfaced": 7426,
      "ersonal": 7427,
      "Ġepis": 7428,
      "mers": 7429,
      "ĠMethod": 7430,
      "ĠFour": 7431,
      "Ġ1950": 7432,
      "Ġpeak": 7433,
      "ĠForce": 7434,
      "trans": 7435,
      "adel": 7436,
      "agraph": 7437,
      "raining": 7438,
      "Ġinvestigation": 7439,
      "ĠPot": 7440,
      "ĠCentre": 7441,
      "eness": 7442,
      "Ġgiant": 7443,
      "Ġoffering": 7444,
      "ĠAdv": 7445,
      "Ġremoval": 7446,
      "74": 7447,
      "Ġpestic": 7448,
      "olving": 7449,
      "ĠKar": 7450,
      "Ġroads": 7451,
      "Ġquarter": 7452,
      "HA": 7453,
      "unicip": 7454,
      "asts": 7455,
      "Ġpermission": 7456,
      "Ġcoverage": 7457,
      "Ġstatements": 7458,
      "Ġisolated": 7459,
      "rene": 7460,
      "Ġrose": 7461,
      "aired": 7462,
      "ĠTre": 7463,
      "ĠSil": 7464,
      "ĠPo": 7465,
      "Ġattitude": 7466,
      "net": 7467,
      "icate": 7468,
      "ĠAND": 7469,
      "hyd": 7470,
      "Ġbigger": 7471,
      "Ġfalls": 7472,
      "asant": 7473,
      "amine": 7474,
      "mod": 7475,
      "Ġpush": 7476,
      "Ġreward": 7477,
      "ĠPlease": 7478,
      "Ġregulation": 7479,
      "ĠConservation": 7480,
      "Ġhouseholds": 7481,
      "ĠSanta": 7482,
      "aming": 7483,
      "vania": 7484,
      "Ġaccompan": 7485,
      "03": 7486,
      "ĠCam": 7487,
      "Ġuniversal": 7488,
      "Ġid": 7489,
      "Ġadds": 7490,
      "Ġvisited": 7491,
      "Ġplanets": 7492,
      "Ġdemocracy": 7493,
      "Ġerrors": 7494,
      "Ġpreparation": 7495,
      "Ġcarbohyd": 7496,
      "Ġmm": 7497,
      "irth": 7498,
      "isted": 7499,
      "quir": 7500,
      "ĠThree": 7501,
      "CE": 7502,
      "atial": 7503,
      "ady": 7504,
      "rous": 7505,
      "Ġroles": 7506,
      "Ġtumor": 7507,
      "09": 7508,
      "ĠGrand": 7509,
      "theless": 7510,
      "ĠForest": 7511,
      "Ġsitting": 7512,
      "fts": 7513,
      "Ġexamination": 7514,
      "Ġmarks": 7515,
      "Ġcriteria": 7516,
      "Ġprinted": 7517,
      "Ġstores": 7518,
      "Ġspin": 7519,
      "Ġouter": 7520,
      "Ġacute": 7521,
      "Ġfilter": 7522,
      "Ġtowns": 7523,
      "Ġuncertain": 7524,
      "ĠAuthor": 7525,
      "Ġsubstantial": 7526,
      "Ġcosm": 7527,
      "Ġcommission": 7528,
      "Ġconfig": 7529,
      "Ġscientist": 7530,
      "Ġinitially": 7531,
      "Ġsatellite": 7532,
      "Ġov": 7533,
      "encing": 7534,
      "istical": 7535,
      "Ġintest": 7536,
      "Ġperception": 7537,
      "Ġroyal": 7538,
      "ĠPrinc": 7539,
      "Ġexcessive": 7540,
      "Ġmales": 7541,
      "allow": 7542,
      "ĠYoung": 7543,
      "ercury": 7544,
      "Ġheads": 7545,
      "Ġargue": 7546,
      "Ġmold": 7547,
      "achers": 7548,
      "ĠLight": 7549,
      "oga": 7550,
      "Ġamazing": 7551,
      "ĠLincoln": 7552,
      "ogether": 7553,
      "Ġslaves": 7554,
      "Ġflows": 7555,
      "Ġfishing": 7556,
      "Ġemphasis": 7557,
      "ogs": 7558,
      "ĠTim": 7559,
      "ĠDou": 7560,
      "Ġvariation": 7561,
      "elfare": 7562,
      "Ġtropical": 7563,
      "Ġdrought": 7564,
      "ĠSir": 7565,
      "Ġcomplications": 7566,
      "Ġenorm": 7567,
      "Ġclar": 7568,
      "Ġexped": 7569,
      "ĠIndust": 7570,
      "Ġprofit": 7571,
      "Ġsplit": 7572,
      "Am": 7573,
      "Ġexceed": 7574,
      "Ġadm": 7575,
      "Ġpreced": 7576,
      "Ġdelivered": 7577,
      "rolled": 7578,
      "Ġmeasurement": 7579,
      "ĠWorks": 7580,
      "Ġconference": 7581,
      "sm": 7582,
      "ĠGeorgia": 7583,
      "Comm": 7584,
      "ĠCheck": 7585,
      "CA": 7586,
      "Ġaest": 7587,
      "Ġcontribution": 7588,
      "Ġtemple": 7589,
      "Ġscreening": 7590,
      "eli": 7591,
      "Ġcharacterized": 7592,
      "Ġcorner": 7593,
      "amber": 7594,
      "Ġconserv": 7595,
      "Ġprovince": 7596,
      "Ġhappening": 7597,
      "just": 7598,
      "Ġfisher": 7599,
      "Ġinspired": 7600,
      "Ġobserve": 7601,
      "Ġregarded": 7602,
      "Ġvariables": 7603,
      "Ġmechanical": 7604,
      "Ġsenior": 7605,
      "icy": 7606,
      "Ġeditor": 7607,
      "Ġfinds": 7608,
      "Ġfocuses": 7609,
      "Ġangle": 7610,
      "ĠPalest": 7611,
      "ĠFacebook": 7612,
      "Ġfires": 7613,
      "essions": 7614,
      "Ġrecover": 7615,
      "acco": 7616,
      "ĠCoast": 7617,
      "Ġconsidering": 7618,
      "eut": 7619,
      "Ġhealing": 7620,
      ")|": 7621,
      "Ġdys": 7622,
      "Ġlens": 7623,
      "ĠSup": 7624,
      "Ġexamined": 7625,
      "Ġstrengthen": 7626,
      "ĠQueen": 7627,
      "ĠMassachusetts": 7628,
      "iture": 7629,
      "angle": 7630,
      "archy": 7631,
      "Ġidentification": 7632,
      "Ġsunlight": 7633,
      "ĠFurthermore": 7634,
      "Ġritual": 7635,
      "Ġintent": 7636,
      "ĠSuper": 7637,
      "ĠStr": 7638,
      "ĠCambridge": 7639,
      "greg": 7640,
      "oli": 7641,
      "Ġreveal": 7642,
      "ioxid": 7643,
      "Car": 7644,
      "irus": 7645,
      "Ġanalys": 7646,
      "Ear": 7647,
      "PR": 7648,
      "Per": 7649,
      "roat": 7650,
      "Ġevolved": 7651,
      "Ġprominent": 7652,
      "Ġadvantages": 7653,
      "ĠOhio": 7654,
      "illa": 7655,
      "ĠHor": 7656,
      "ĠResp": 7657,
      "Ġdirected": 7658,
      "Ġwindows": 7659,
      "Ġhazard": 7660,
      "Ġwine": 7661,
      "Ġconj": 7662,
      "ĠBul": 7663,
      "ĠLin": 7664,
      "Ġnewly": 7665,
      "door": 7666,
      "Ġcoc": 7667,
      "May": 7668,
      "iat": 7669,
      "Ġpit": 7670,
      "ruption": 7671,
      "Ġauthent": 7672,
      "Ġbreed": 7673,
      "She": 7674,
      "Ġbomb": 7675,
      "ĠTV": 7676,
      "aping": 7677,
      "ĠArctic": 7678,
      "Ġhydro": 7679,
      "Ġcm": 7680,
      "Ġsport": 7681,
      "ĠSund": 7682,
      "anger": 7683,
      "About": 7684,
      "yer": 7685,
      "Ġnose": 7686,
      "ĠSign": 7687,
      "ĠChapter": 7688,
      "Ġserves": 7689,
      "Ġmusical": 7690,
      "sell": 7691,
      "ĠEst": 7692,
      "Ġ1930": 7693,
      "Ġscore": 7694,
      "Ġprobability": 7695,
      "Ġbranch": 7696,
      "Ġton": 7697,
      "Ġwage": 7698,
      "Ġdance": 7699,
      "Ġgro": 7700,
      "angered": 7701,
      "Ġstuff": 7702,
      "Ġaged": 7703,
      "Ġcontributed": 7704,
      "night": 7705,
      "Ġperm": 7706,
      "Ġexpanded": 7707,
      "Ġcaught": 7708,
      "ĠLow": 7709,
      "Ġnarrative": 7710,
      "ilation": 7711,
      "Ġstations": 7712,
      "irms": 7713,
      "riend": 7714,
      "Ġdriven": 7715,
      "ĠEgyptian": 7716,
      "Ġpin": 7717,
      "Ġalive": 7718,
      "Ġclient": 7719,
      "ovascular": 7720,
      "Ġslave": 7721,
      "ĠFinally": 7722,
      "Ð°": 7723,
      "itals": 7724,
      "Ġmic": 7725,
      "Ġworst": 7726,
      "Ġarray": 7727,
      "Ġrelie": 7728,
      "Ã¤": 7729,
      "Ġvan": 7730,
      "ĠLiter": 7731,
      "Ġuniform": 7732,
      "Ġgrain": 7733,
      "Ġreaching": 7734,
      "ĠCross": 7735,
      "amples": 7736,
      "Ġinfant": 7737,
      "Ġoccurring": 7738,
      "Ġillegal": 7739,
      "Ġsculpt": 7740,
      "Ġteams": 7741,
      "ucky": 7742,
      "ĠCommunity": 7743,
      "Ġtelevision": 7744,
      "04": 7745,
      "urolog": 7746,
      "Ġbeans": 7747,
      "ĠVen": 7748,
      "Ġopposition": 7749,
      "Ġflower": 7750,
      "Ġgrounds": 7751,
      "ĠAI": 7752,
      "Ġanywhere": 7753,
      "Ġguard": 7754,
      "IDS": 7755,
      "zer": 7756,
      "Ġwisdom": 7757,
      "Ġaccommod": 7758,
      "Ġwrites": 7759,
      "opyright": 7760,
      "69": 7761,
      "eor": 7762,
      "acent": 7763,
      "ĠEr": 7764,
      "zheimer": 7765,
      "abeth": 7766,
      "ĠWil": 7767,
      "uality": 7768,
      "ĠLearn": 7769,
      "ĠHebrew": 7770,
      "iti": 7771,
      "Ġalph": 7772,
      "Ġhence": 7773,
      "una": 7774,
      "Ġseparated": 7775,
      "Ġinnovation": 7776,
      "Ġeliminate": 7777,
      "oids": 7778,
      "olt": 7779,
      "ultane": 7780,
      "Ġcommunications": 7781,
      "agram": 7782,
      "pling": 7783,
      "Ġpointed": 7784,
      "Ġheavily": 7785,
      "ĠIslamic": 7786,
      ".||": 7787,
      "?\"": 7788,
      "RA": 7789,
      "bec": 7790,
      "tles": 7791,
      "ami": 7792,
      "Ġdiameter": 7793,
      "Ġathlet": 7794,
      "ura": 7795,
      "Ġinterface": 7796,
      "ĠPlant": 7797,
      "Ġlosses": 7798,
      "ĠParliament": 7799,
      "requ": 7800,
      "ĠSet": 7801,
      "amins": 7802,
      "Ġplot": 7803,
      "forest": 7804,
      "Ġgrows": 7805,
      "People": 7806,
      "otton": 7807,
      "Ġintensity": 7808,
      "syl": 7809,
      "Ġthreatened": 7810,
      "Ġsilver": 7811,
      "Ġsales": 7812,
      "ptions": 7813,
      "Ġagent": 7814,
      "Ġformula": 7815,
      "Ġmicrosc": 7816,
      "oul": 7817,
      "ĠStart": 7818,
      "Ġdetection": 7819,
      "Ġcalling": 7820,
      "brid": 7821,
      "ĠAL": 7822,
      "thritis": 7823,
      "ĠLos": 7824,
      "arents": 7825,
      "Ġpanels": 7826,
      "ĠSar": 7827,
      "Ġabsence": 7828,
      "ĠArticle": 7829,
      "Ġtrigger": 7830,
      "Ġvocabulary": 7831,
      "02": 7832,
      "Ġliterary": 7833,
      "lete": 7834,
      "Ġlaser": 7835,
      "ĠBattle": 7836,
      "coming": 7837,
      "Ġorb": 7838,
      "orted": 7839,
      "Ġabilities": 7840,
      "aph": 7841,
      "Ġdisrupt": 7842,
      "ĠCard": 7843,
      "Ġoldest": 7844,
      "rav": 7845,
      "Ġdescript": 7846,
      "print": 7847,
      "Ġsuscept": 7848,
      "def": 7849,
      "ugg": 7850,
      "emb": 7851,
      "Ġnice": 7852,
      "ette": 7853,
      "estion": 7854,
      "Ġovercome": 7855,
      "century": 7856,
      "Ġexception": 7857,
      "Ġgirl": 7858,
      "Ġcompound": 7859,
      "ieval": 7860,
      "Ġbless": 7861,
      "ĠConvention": 7862,
      "ĠFrancisco": 7863,
      "Ġunw": 7864,
      "Ġextend": 7865,
      "iop": 7866,
      "Ġbag": 7867,
      "Ġhorses": 7868,
      "Ġcommitment": 7869,
      "Ġnewspaper": 7870,
      "Ġrational": 7871,
      "ĠFigure": 7872,
      "Ġremed": 7873,
      "Ġobservation": 7874,
      "ĠChristianity": 7875,
      "Ġsettled": 7876,
      "effect": 7877,
      "Ġmouse": 7878,
      "urning": 7879,
      "ĠAM": 7880,
      "Ġstrike": 7881,
      "html": 7882,
      "ĠDC": 7883,
      "Ġfarms": 7884,
      "Ġconsideration": 7885,
      "ĠPortug": 7886,
      "Ġinhabit": 7887,
      "Ġpeoples": 7888,
      "Ġconsume": 7889,
      "ĠProtection": 7890,
      "Ð¾": 7891,
      "Ġ)": 7892,
      "ĠTop": 7893,
      "Ġcomprom": 7894,
      "Ġdietary": 7895,
      "Ġappointed": 7896,
      "App": 7897,
      "Ġom": 7898,
      "Ġchap": 7899,
      "Ġpolar": 7900,
      "Ġswit": 7901,
      "ĠBooks": 7902,
      "Ġaudio": 7903,
      "ENT": 7904,
      "ĠCurrent": 7905,
      "',": 7906,
      "Ġholes": 7907,
      "Ġcourts": 7908,
      "Ġlearners": 7909,
      "Ġtaxes": 7910,
      "Ġinitiative": 7911,
      "rency": 7912,
      "Ġcontainer": 7913,
      "ĠPolit": 7914,
      "Ġscheme": 7915,
      "nov": 7916,
      "Ġtor": 7917,
      "ĠNever": 7918,
      "ĠLo": 7919,
      "soft": 7920,
      "Ġblo": 7921,
      "Ġprotecting": 7922,
      "bul": 7923,
      "Ġseat": 7924,
      "Ġ55": 7925,
      "Ġauton": 7926,
      "SS": 7927,
      "rical": 7928,
      "Ġenables": 7929,
      "neys": 7930,
      "Ġpleasure": 7931,
      "Ġinsight": 7932,
      "ĠSimilar": 7933,
      "green": 7934,
      "ifice": 7935,
      "Ġdesert": 7936,
      "ĠHeart": 7937,
      "Ġbiom": 7938,
      "ĠÂ£": 7939,
      "haust": 7940,
      "\")": 7941,
      "ogenic": 7942,
      "Ġtribes": 7943,
      "sylvania": 7944,
      "icular": 7945,
      "Ġhoney": 7946,
      "Ġadvent": 7947,
      "Ġofficer": 7948,
      "she": 7949,
      "ĠLee": 7950,
      "Ġspr": 7951,
      "ailable": 7952,
      "gener": 7953,
      "Ġdegrad": 7954,
      "ĠMichigan": 7955,
      "Ġspoken": 7956,
      "uan": 7957,
      "rection": 7958,
      "itory": 7959,
      "Ġfo": 7960,
      "Ġgases": 7961,
      "Ġchlor": 7962,
      "Ġlistening": 7963,
      "erty": 7964,
      "Ġexplicit": 7965,
      "Ġglac": 7966,
      "Ġcharacteristic": 7967,
      "Ġdecreased": 7968,
      "Ġmortality": 7969,
      "vi": 7970,
      "utation": 7971,
      "Ġindigenous": 7972,
      "aws": 7973,
      "HD": 7974,
      "har": 7975,
      "action": 7976,
      "Ġbelieves": 7977,
      "Ġprinting": 7978,
      "Ġautomatically": 7979,
      "Ġconce": 7980,
      "Ġcovering": 7981,
      "Ġceremon": 7982,
      "ĠAlexander": 7983,
      "Ġantibiotics": 7984,
      "Ed": 7985,
      "Ġsubt": 7986,
      "Ġboat": 7987,
      "ĠOnline": 7988,
      "Ġstopped": 7989,
      "Ġmanufacturers": 7990,
      "ĠRock": 7991,
      "Ġregardless": 7992,
      "Ġmothers": 7993,
      "63": 7994,
      "Ġtube": 7995,
      "aning": 7996,
      "Ġgrid": 7997,
      "ĠBa": 7998,
      "ĠAlzheimer": 7999,
      "Ġelsewhere": 8000,
      "OM": 8001,
      "asma": 8002,
      "thon": 8003,
      "Ġforming": 8004,
      "Ġsocieties": 8005,
      "Ġprocessed": 8006,
      "Ġprovider": 8007,
      "Ġprogramme": 8008,
      "Ġaffecting": 8009,
      "adelph": 8010,
      "Ġhosp": 8011,
      "Ġcharged": 8012,
      "Ġargued": 8013,
      "Ġvideos": 8014,
      "ĠVietnam": 8015,
      "athered": 8016,
      "ansas": 8017,
      "Ġmyst": 8018,
      "Ġsupplements": 8019,
      "Ġobjectives": 8020,
      "Ġviewed": 8021,
      "Ġaddressed": 8022,
      "Pre": 8023,
      "uy": 8024,
      "Ġbare": 8025,
      "Ġfur": 8026,
      "rison": 8027,
      "John": 8028,
      "atively": 8029,
      "Ġlights": 8030,
      "Ġheaven": 8031,
      "Ġcomfortable": 8032,
      "ket": 8033,
      "otal": 8034,
      "raq": 8035,
      "ĠDoes": 8036,
      "Ġdisabilities": 8037,
      "Ġearthquake": 8038,
      "Ġbrows": 8039,
      "istant": 8040,
      "ĠWay": 8041,
      "Ġproviders": 8042,
      "Ġconfident": 8043,
      "Ġflying": 8044,
      "Ġparad": 8045,
      "Ġordinary": 8046,
      "ĠCorn": 8047,
      "Ġconclus": 8048,
      "ĠNote": 8049,
      "Ġdose": 8050,
      "ĠColl": 8051,
      "Ġphrase": 8052,
      "Ġfix": 8053,
      "Ġhumanity": 8054,
      "Ġfatigue": 8055,
      "Ġidentifying": 8056,
      "Ġcooling": 8057,
      "Ġmine": 8058,
      "rot": 8059,
      "Ġelder": 8060,
      "Ġstability": 8061,
      "eping": 8062,
      "Ġ33": 8063,
      "Ġorders": 8064,
      "Ġdramatic": 8065,
      "08": 8066,
      "Ġcann": 8067,
      "asm": 8068,
      "ĠTable": 8069,
      "cho": 8070,
      "ĠWithout": 8071,
      "Ġdynamic": 8072,
      "Ġduty": 8073,
      "Pr": 8074,
      "Ġdecay": 8075,
      "Ġmeasuring": 8076,
      "ographical": 8077,
      "Get": 8078,
      "zym": 8079,
      "enger": 8080,
      "Ġthereby": 8081,
      "plete": 8082,
      "Ġexploration": 8083,
      "Ġtreating": 8084,
      "Ġconstra": 8085,
      "ĠSection": 8086,
      "Ġ1920": 8087,
      "Ġexperiencing": 8088,
      "Ġdeficiency": 8089,
      "ba": 8090,
      "Ġtick": 8091,
      "Ġadolesc": 8092,
      "Ġfunctioning": 8093,
      "ĠMusic": 8094,
      "Ġexecutive": 8095,
      "otherapy": 8096,
      "icing": 8097,
      "Ġversions": 8098,
      "Ġcounsel": 8099,
      "ĠModern": 8100,
      "Ġtables": 8101,
      "Ġmoderate": 8102,
      "Ġfinish": 8103,
      "Ġexisted": 8104,
      "Ġinteractive": 8105,
      "Ġchannel": 8106,
      "Last": 8107,
      "Part": 8108,
      "Ġhidden": 8109,
      "omatic": 8110,
      "mann": 8111,
      "Ġmathematical": 8112,
      "aus": 8113,
      "Ġlists": 8114,
      "Ġmanifest": 8115,
      "ĠHospital": 8116,
      "quar": 8117,
      "Ġcleaning": 8118,
      "stant": 8119,
      "Ġbeat": 8120,
      "igate": 8121,
      "Ġappeal": 8122,
      "Ġdistricts": 8123,
      "Ġoverwhel": 8124,
      "adelphia": 8125,
      "Ġbiodiversity": 8126,
      "ildren": 8127,
      "Ġreporting": 8128,
      "ĠPrevention": 8129,
      "world": 8130,
      "ĠJul": 8131,
      "Ġdism": 8132,
      "Ġrepresentation": 8133,
      "Ġadapted": 8134,
      "ĠMah": 8135,
      "Ġentit": 8136,
      "Ġmarg": 8137,
      "Ġembra": 8138,
      "Ġtrends": 8139,
      "ĠEconomic": 8140,
      "ĠPolicy": 8141,
      "text": 8142,
      "Ġ1991": 8143,
      "ĠJohnson": 8144,
      "Ġkingdom": 8145,
      "amination": 8146,
      "elve": 8147,
      "Ġresid": 8148,
      "Ġsurge": 8149,
      "Ġdetected": 8150,
      "Ġfolk": 8151,
      "Ġresearcher": 8152,
      "Ġimprovements": 8153,
      "Ġengineers": 8154,
      "gence": 8155,
      "Ġsad": 8156,
      "Ġevening": 8157,
      "nedy": 8158,
      "ĠSenate": 8159,
      "Ġschedule": 8160,
      "rator": 8161,
      "Ġadvis": 8162,
      "ĠScotland": 8163,
      "Ġmixture": 8164,
      "Ġles": 8165,
      "Ġimaging": 8166,
      "agen": 8167,
      "Ġampl": 8168,
      "Ġcorrel": 8169,
      "Ġhardware": 8170,
      "Ġconcentrations": 8171,
      "Ġinterior": 8172,
      "Ġurine": 8173,
      "Ġaimed": 8174,
      "Ġupdated": 8175,
      "Ġpy": 8176,
      "ayer": 8177,
      "Ġworship": 8178,
      "Ġsched": 8179,
      "Ġhabitats": 8180,
      "Ġweakness": 8181,
      "HS": 8182,
      "ĠCirc": 8183,
      "Ġplain": 8184,
      "Ġplayer": 8185,
      "Ġparagraph": 8186,
      "Ġestablishment": 8187,
      ".).": 8188,
      "ĠClick": 8189,
      "ĠPage": 8190,
      "Ġresc": 8191,
      "Ġdirections": 8192,
      "Ġhormone": 8193,
      "Ġperceived": 8194,
      "iments": 8195,
      "mentation": 8196,
      "Ġpion": 8197,
      "ĠGulf": 8198,
      "ĠJo": 8199,
      "Ġantioxid": 8200,
      "Ġcran": 8201,
      "ĠOs": 8202,
      "izabeth": 8203,
      "Ġeducators": 8204,
      "Ġemerging": 8205,
      "Ġnotion": 8206,
      "Ġraising": 8207,
      "Ġlifetime": 8208,
      "Eng": 8209,
      "Ġchemistry": 8210,
      "Ġacquired": 8211,
      "Ġcopyright": 8212,
      "Ġconsciousness": 8213,
      "ĠSupreme": 8214,
      "Ġowned": 8215,
      "Ġfalling": 8216,
      "ĠImp": 8217,
      "Ġvertical": 8218,
      "Ġgods": 8219,
      "Ġassumed": 8220,
      "67": 8221,
      "ouds": 8222,
      "Ġchair": 8223,
      "Ġfung": 8224,
      "Ġburied": 8225,
      "TP": 8226,
      "fast": 8227,
      "Ġmeals": 8228,
      "Ġequation": 8229,
      "Ġrestoration": 8230,
      "ĠSafety": 8231,
      "orig": 8232,
      "ician": 8233,
      "ĠTry": 8234,
      "ustain": 8235,
      "Ġrespiratory": 8236,
      "Ġgrains": 8237,
      "ĠPennsylvania": 8238,
      "ĠUt": 8239,
      "Ġsubstit": 8240,
      "Ġpreserve": 8241,
      "Ġstrain": 8242,
      "Ġregime": 8243,
      "ontal": 8244,
      "mm": 8245,
      "Ġtong": 8246,
      "Ġclassical": 8247,
      "Ġperforming": 8248,
      "Ġsensitivity": 8249,
      "ometry": 8250,
      "ĠReading": 8251,
      "Ġflexible": 8252,
      "usalem": 8253,
      "ranean": 8254,
      "Ġlabour": 8255,
      "Ġgravity": 8256,
      "AA": 8257,
      "Ġsimultane": 8258,
      "ĠAvoid": 8259,
      "Ġthermal": 8260,
      "hus": 8261,
      "Ġminds": 8262,
      "Ġbegun": 8263,
      "Ġfra": 8264,
      "ĠEncyclopedia": 8265,
      "Ġeru": 8266,
      "Ġpoetry": 8267,
      "Col": 8268,
      "ĠAk": 8269,
      "ĠUnfortunately": 8270,
      "ĠAnalysis": 8271,
      "ostic": 8272,
      "Ġinvestigate": 8273,
      "ĠConference": 8274,
      "Ġstreets": 8275,
      "ĠSand": 8276,
      "Ġsevent": 8277,
      "Ġkilling": 8278,
      "ruit": 8279,
      "Ġplanting": 8280,
      "59": 8281,
      "Ġvel": 8282,
      "ĠObs": 8283,
      "ĠOrig": 8284,
      "bel": 8285,
      "Ġcure": 8286,
      "Ġhypothesis": 8287,
      "Ġenormous": 8288,
      "ĠHand": 8289,
      "Ġtransc": 8290,
      "otype": 8291,
      "ĠCapt": 8292,
      "Ġentertain": 8293,
      "ĠAdditionally": 8294,
      "ĠAmazon": 8295,
      "Ġexciting": 8296,
      "fe": 8297,
      ")||": 8298,
      "CT": 8299,
      "host": 8300,
      "wan": 8301,
      "Ġfellow": 8302,
      "uten": 8303,
      "ĠES": 8304,
      "awa": 8305,
      "Ġextension": 8306,
      "Ġboundaries": 8307,
      "Ġdriver": 8308,
      "Hist": 8309,
      "foot": 8310,
      "ĠPoint": 8311,
      "ĠGar": 8312,
      "atal": 8313,
      "Ġbutton": 8314,
      "ĠHead": 8315,
      "Ġinnovative": 8316,
      "Ġtemporary": 8317,
      "Ġcolony": 8318,
      "Ġcow": 8319,
      "opher": 8320,
      "ĠLy": 8321,
      "aren": 8322,
      "Ġfaces": 8323,
      "Ġcreatures": 8324,
      "holders": 8325,
      "ĠDivision": 8326,
      "ador": 8327,
      "Ġshoot": 8328,
      "Ġquiet": 8329,
      "Ġaging": 8330,
      "Ġcurve": 8331,
      "Ġliteracy": 8332,
      "ĠSystems": 8333,
      "Ġwonderful": 8334,
      "Ġmir": 8335,
      "ĠMult": 8336,
      "ĠDown": 8337,
      "Ġincident": 8338,
      "ipe": 8339,
      "ailed": 8340,
      "Ġtempor": 8341,
      "Ġstones": 8342,
      "2013": 8343,
      "Ġharder": 8344,
      "Ġdrag": 8345,
      "Ġconsumed": 8346,
      "Ġbottle": 8347,
      "Ġborrow": 8348,
      "ĠTom": 8349,
      "Ġspray": 8350,
      "Ġlogic": 8351,
      "Ġcrown": 8352,
      "lymp": 8353,
      "ĠMath": 8354,
      "Ġassert": 8355,
      "ĠMinistry": 8356,
      "EF": 8357,
      "run": 8358,
      "Ġreign": 8359,
      "ĠPass": 8360,
      "ĠBusiness": 8361,
      "ĠCho": 8362,
      "Ġpropag": 8363,
      "NS": 8364,
      "ali": 8365,
      "Ġpool": 8366,
      "Ġcorrectly": 8367,
      "isd": 8368,
      "ecess": 8369,
      "Ġdisability": 8370,
      "Ġbehavioral": 8371,
      "Ġvegetation": 8372,
      "ĠWildlife": 8373,
      "lines": 8374,
      "onents": 8375,
      "Ġ(\"": 8376,
      "ourse": 8377,
      "ricted": 8378,
      "2012": 8379,
      "Ġcontributions": 8380,
      "Ġvirtually": 8381,
      "ĠTestament": 8382,
      "Ġfought": 8383,
      "unc": 8384,
      "Ġentering": 8385,
      "Ġtechnological": 8386,
      "Ġpersonality": 8387,
      "%,": 8388,
      ".'": 8389,
      "ĠLittle": 8390,
      "Ġavailability": 8391,
      "Ġreasonable": 8392,
      "Ġdeeply": 8393,
      "Ġsizes": 8394,
      "eting": 8395,
      "Ġcancers": 8396,
      "operative": 8397,
      "ĠJacob": 8398,
      "http": 8399,
      "Under": 8400,
      "kind": 8401,
      "Ġexhaust": 8402,
      "ĠLess": 8403,
      "ĠLuc": 8404,
      "Ġabstract": 8405,
      "Ġplanted": 8406,
      "Ġcyber": 8407,
      "Ġpsychology": 8408,
      "ĠHarvard": 8409,
      "07": 8410,
      "56": 8411,
      "Ġlosing": 8412,
      "Ġbees": 8413,
      "rize": 8414,
      "Ġshaped": 8415,
      "endment": 8416,
      "Ġacting": 8417,
      "cking": 8418,
      "Ġphysically": 8419,
      "Ġintroduce": 8420,
      "Ġversus": 8421,
      "Ġsaved": 8422,
      "ĠIdent": 8423,
      "Ġphotographs": 8424,
      "rity": 8425,
      "ĠTO": 8426,
      "apor": 8427,
      "Ġdescend": 8428,
      "olk": 8429,
      "raham": 8430,
      "Ġtelling": 8431,
      "Also": 8432,
      "Ġqualities": 8433,
      "Ġreef": 8434,
      "ĠSpring": 8435,
      "ependent": 8436,
      "Ġnutrient": 8437,
      "ĠEngineering": 8438,
      "ati": 8439,
      "Ġlip": 8440,
      "Ġnom": 8441,
      "Ġflash": 8442,
      "Ġpromoting": 8443,
      "Ġstrategic": 8444,
      "ĠKorean": 8445,
      "uting": 8446,
      "pled": 8447,
      "Ġarguments": 8448,
      "Ġremarkable": 8449,
      "illance": 8450,
      "econ": 8451,
      "Ġracial": 8452,
      "Ġattach": 8453,
      "Ġears": 8454,
      ":||": 8455,
      "uity": 8456,
      "ĠIT": 8457,
      "Ġcompos": 8458,
      "ĠPeace": 8459,
      "ao": 8460,
      "ĠSolar": 8461,
      "ĠHim": 8462,
      "Ġtraits": 8463,
      "Ġactively": 8464,
      "Ġhunting": 8465,
      "Ġpel": 8466,
      "ĠPak": 8467,
      "Ġ39": 8468,
      "ĠIslands": 8469,
      "riday": 8470,
      "Ġrequirement": 8471,
      "Ġprivile": 8472,
      "Ġcolonies": 8473,
      "Ġexpertise": 8474,
      "ĠAgriculture": 8475,
      "Ġchromos": 8476,
      "Ġempty": 8477,
      "nut": 8478,
      "imp": 8479,
      "ifted": 8480,
      "Ġranging": 8481,
      "ĠRight": 8482,
      "Ġviolent": 8483,
      "Ġlungs": 8484,
      "ĠLaboratory": 8485,
      "feed": 8486,
      "alities": 8487,
      "ĠRail": 8488,
      "ĠOper": 8489,
      "borne": 8490,
      "Ġcommittee": 8491,
      "ĠAgain": 8492,
      "ĠKennedy": 8493,
      "Ġparameters": 8494,
      "],": 8495,
      "ĠAff": 8496,
      "ĠFire": 8497,
      "Ġkeeps": 8498,
      "ĠAntar": 8499,
      "Ġelectrons": 8500,
      "ĠTurkey": 8501,
      "Ġdominant": 8502,
      "ĠWal": 8503,
      "Ġscores": 8504,
      "Ġlowest": 8505,
      "ocolate": 8506,
      "Ġpill": 8507,
      "Ġparticle": 8508,
      "Ġsentences": 8509,
      "ĠPhiladelphia": 8510,
      "Art": 8511,
      "Ġholiday": 8512,
      "Ref": 8513,
      "ĠFred": 8514,
      "Ġapparently": 8515,
      "ĠColorado": 8516,
      "á¹": 8517,
      "Ġwelfare": 8518,
      "Ġsummary": 8519,
      "Ġ1940": 8520,
      "disc": 8521,
      "ceans": 8522,
      "urches": 8523,
      "ĠModel": 8524,
      "Ġcorresponding": 8525,
      "made": 8526,
      "Ġwider": 8527,
      "Ġinequ": 8528,
      "omers": 8529,
      "Ġhaven": 8530,
      "Ġguess": 8531,
      "esh": 8532,
      "ĠIraq": 8533,
      "Ġmanaging": 8534,
      "Ġwouldn": 8535,
      "Ġengaging": 8536,
      "Ġposts": 8537,
      "Ġlinear": 8538,
      "Ġreflected": 8539,
      "Ġexpectations": 8540,
      "EO": 8541,
      "eries": 8542,
      "Ġprotective": 8543,
      "Ġmarketing": 8544,
      "ĠRoad": 8545,
      "ĠSurvey": 8546,
      "Ġdropped": 8547,
      "zyme": 8548,
      "aret": 8549,
      "awn": 8550,
      "Ġelections": 8551,
      "ĠDev": 8552,
      "Ġconverted": 8553,
      "Ġanger": 8554,
      "ouses": 8555,
      "Ġherb": 8556,
      "Ġinterventions": 8557,
      "Ġ34": 8558,
      "Ġdevelopments": 8559,
      "Ġpainful": 8560,
      "Ġvariations": 8561,
      "Ġseriously": 8562,
      "Each": 8563,
      "Ġattribut": 8564,
      "Ġheritage": 8565,
      "ĠJustice": 8566,
      "BT": 8567,
      "through": 8568,
      "ĠBiology": 8569,
      "Ġmanager": 8570,
      "Ġevident": 8571,
      "Ġsurg": 8572,
      "Ġquantity": 8573,
      "Ġwaiting": 8574,
      "ĠJerusalem": 8575,
      "Are": 8576,
      "Ġsuit": 8577,
      "Ġreserved": 8578,
      "Ġcontinuing": 8579,
      "regon": 8580,
      "Ġemotion": 8581,
      "ĠGreece": 8582,
      "IF": 8583,
      "Where": 8584,
      "you": 8585,
      "Ġstake": 8586,
      "Ġclassified": 8587,
      "erts": 8588,
      "ĠMajor": 8589,
      "ĠStan": 8590,
      "Ġdense": 8591,
      "Ġcooperation": 8592,
      "Ġeleph": 8593,
      "Ġfocusing": 8594,
      "ĠArabic": 8595,
      "rh": 8596,
      "Ġease": 8597,
      "ĠTown": 8598,
      "ĠOlymp": 8599,
      "Ġoccas": 8600,
      "Ġforecast": 8601,
      "Ġverb": 8602,
      "Ġwebsites": 8603,
      "Ġanalyze": 8604,
      "Ġsymbols": 8605,
      "CH": 8606,
      "Ġtu": 8607,
      "Ġrepresentative": 8608,
      "DS": 8609,
      "Ġ×": 8610,
      "Ġsuicide": 8611,
      "ĠDrug": 8612,
      "ipher": 8613,
      "ensed": 8614,
      "ĠIndeed": 8615,
      "Ġliterally": 8616,
      "'.": 8617,
      "icts": 8618,
      "ĠLast": 8619,
      "Ġspinal": 8620,
      "agan": 8621,
      "iterranean": 8622,
      "Ġopinions": 8623,
      "Ġtag": 8624,
      "Ġchose": 8625,
      "rix": 8626,
      "plo": 8627,
      "Ġmigration": 8628,
      "ĠSunday": 8629,
      "Ġintention": 8630,
      "ĠAsk": 8631,
      "ospel": 8632,
      "Ġfilms": 8633,
      "Ġachievement": 8634,
      "Ġquantum": 8635,
      "Ġpreferred": 8636,
      "Ġrestrictions": 8637,
      "mond": 8638,
      "Ġtab": 8639,
      "Ġtone": 8640,
      "Ġcas": 8641,
      "Ġtob": 8642,
      "Ġchances": 8643,
      "ĠâĢ¢": 8644,
      "Ġmovie": 8645,
      "Ġasp": 8646,
      "Ġecological": 8647,
      "Ġownership": 8648,
      "Ġaccompanied": 8649,
      "'d": 8650,
      "enh": 8651,
      "Ġmature": 8652,
      "Ġstyles": 8653,
      "Ġconvert": 8654,
      "aints": 8655,
      "ĠGre": 8656,
      "Ġanticip": 8657,
      "AB": 8658,
      "Ðµ": 8659,
      "Ġcomputing": 8660,
      "Ġmedicines": 8661,
      "Ġcraft": 8662,
      "ashes": 8663,
      "Ġstood": 8664,
      "teb": 8665,
      "hester": 8666,
      "Ġpets": 8667,
      "ema": 8668,
      "Ġperf": 8669,
      "Ġmyself": 8670,
      "Ġsuspect": 8671,
      "Ġgent": 8672,
      "ĠHum": 8673,
      "Ġadverse": 8674,
      "Ġtrace": 8675,
      "eras": 8676,
      "Ġspoke": 8677,
      "Ġwheel": 8678,
      "Ġclub": 8679,
      "onday": 8680,
      "ibraries": 8681,
      "Ġrevenue": 8682,
      "Ġwars": 8683,
      "Ġtom": 8684,
      "agnetic": 8685,
      "Ġreturns": 8686,
      "Ġoxid": 8687,
      "hea": 8688,
      "onal": 8689,
      "Ġcord": 8690,
      "Ġhall": 8691,
      "Ġcontents": 8692,
      "Sm": 8693,
      "Ġbears": 8694,
      "uras": 8695,
      "rue": 8696,
      "Ġclock": 8697,
      "thew": 8698,
      "Ġpromise": 8699,
      "ĠAngeles": 8700,
      "zymes": 8701,
      "ĠFact": 8702,
      "Ġlanding": 8703,
      "Ġorigins": 8704,
      "Ġintegration": 8705,
      "iations": 8706,
      "Ġcul": 8707,
      "asy": 8708,
      "umer": 8709,
      "ivest": 8710,
      "ogy": 8711,
      "Ġcollective": 8712,
      "Ġaggressive": 8713,
      "61": 8714,
      "Cons": 8715,
      "Ġmg": 8716,
      "Ġmunicip": 8717,
      "emia": 8718,
      "ĠFind": 8719,
      "Ġ95": 8720,
      "Ġpriority": 8721,
      "Ġtrauma": 8722,
      "68": 8723,
      "Ġrefused": 8724,
      "Ġenjoyed": 8725,
      "ĠDaniel": 8726,
      "!âĢĿ": 8727,
      "ĠDiet": 8728,
      "Ġrab": 8729,
      "Ġreferences": 8730,
      "Ġeverywhere": 8731,
      "ĠElizabeth": 8732,
      "Ġvictory": 8733,
      "Ġunlikely": 8734,
      "ocated": 8735,
      "Ġexhibit": 8736,
      "Ġprescribed": 8737,
      "uther": 8738,
      "ĠMax": 8739,
      "ĠPur": 8740,
      "Ġspan": 8741,
      "Ġapplying": 8742,
      "Ġclassic": 8743,
      "claim": 8744,
      "Ġdiscussions": 8745,
      "62": 8746,
      "Ġreverse": 8747,
      "ĠFil": 8748,
      "ĠNO": 8749,
      "Ġtransmitted": 8750,
      "ĠContin": 8751,
      "Ġbacterial": 8752,
      "Ġlogical": 8753,
      "ĠCorps": 8754,
      "Ġcustomer": 8755,
      "Ġuniversities": 8756,
      "Ġresistant": 8757,
      "cin": 8758,
      "Ġ120": 8759,
      "ĠFair": 8760,
      "play": 8761,
      "Ġlock": 8762,
      "Ġvitamins": 8763,
      "Ġcelebrated": 8764,
      "Ġfuels": 8765,
      "press": 8766,
      "Ġsongs": 8767,
      "Ge": 8768,
      "ĠObama": 8769,
      "MP": 8770,
      "ĠPope": 8771,
      "Ġsees": 8772,
      "ĠOl": 8773,
      "issance": 8774,
      "53": 8775,
      "orters": 8776,
      "Ġherself": 8777,
      "Ġloose": 8778,
      "Who": 8779,
      "Ġsustainability": 8780,
      "Ġrefugees": 8781,
      "Ġcardiovascular": 8782,
      "EG": 8783,
      "Ġsteam": 8784,
      "sembly": 8785,
      "Ġtobacco": 8786,
      "Just": 8787,
      "Ġtort": 8788,
      "Ġfet": 8789,
      "Ġgift": 8790,
      "Ġgathered": 8791,
      "ela": 8792,
      "Ġconvey": 8793,
      "ateral": 8794,
      "Ġunn": 8795,
      "Ġfeels": 8796,
      "Ġrestore": 8797,
      "mented": 8798,
      "Ġmodule": 8799,
      "Ġcelebrate": 8800,
      "Ġempire": 8801,
      "Ġvolunteers": 8802,
      "Ġtelesc": 8803,
      "Ne": 8804,
      "Ġnoticed": 8805,
      "ĠGDP": 8806,
      "ĠInvest": 8807,
      "Ġ37": 8808,
      "Ġpassion": 8809,
      "Ġutility": 8810,
      "Ġsodium": 8811,
      "QL": 8812,
      "mble": 8813,
      "ĠMoses": 8814,
      "ĠNob": 8815,
      "Ġspecified": 8816,
      "ĠCentury": 8817,
      "Ġdetermining": 8818,
      "Ġtargeted": 8819,
      "was": 8820,
      "rub": 8821,
      "Ġstrange": 8822,
      "ĠTurk": 8823,
      "Ġruled": 8824,
      "jo": 8825,
      "Ġalarm": 8826,
      "iano": 8827,
      "Ġrealized": 8828,
      "Ġsafely": 8829,
      "ĠAction": 8830,
      "terior": 8831,
      "berry": 8832,
      "Ġaccord": 8833,
      "obile": 8834,
      "Ġbuff": 8835,
      "Ġensuring": 8836,
      "ĠAssess": 8837,
      "shaped": 8838,
      "Ġcolonial": 8839,
      "Ġfinger": 8840,
      "VID": 8841,
      "Ġdict": 8842,
      "ĠSpir": 8843,
      "Ġequality": 8844,
      "Using": 8845,
      "hire": 8846,
      "Ġtack": 8847,
      "Ġfats": 8848,
      "ĠRh": 8849,
      "Ġclients": 8850,
      "Ġrac": 8851,
      "Ġproductivity": 8852,
      "Ġassociate": 8853,
      "Ġsleeping": 8854,
      "advant": 8855,
      "issipp": 8856,
      "chnology": 8857,
      "Ġcapabilities": 8858,
      "Step": 8859,
      "Like": 8860,
      "Ġpace": 8861,
      "ico": 8862,
      "ĠBack": 8863,
      "oca": 8864,
      "Â®": 8865,
      "Ġreaches": 8866,
      "Ġrecre": 8867,
      "lected": 8868,
      "bean": 8869,
      "dr": 8870,
      "Ġpermit": 8871,
      "Ġcheap": 8872,
      "ĠMediterranean": 8873,
      "Ġsessions": 8874,
      "ĠCreek": 8875,
      "Ġwearing": 8876,
      "ĠFDA": 8877,
      "Ġuncle": 8878,
      "ĠPerhaps": 8879,
      "ĠÂ©": 8880,
      "Sim": 8881,
      "Ġsurprise": 8882,
      "Ġdrinks": 8883,
      "hemistry": 8884,
      "ĠBeing": 8885,
      "Ġdefinitely": 8886,
      "ref": 8887,
      "Ġfunded": 8888,
      "Ġmammals": 8889,
      "quiry": 8890,
      "Sec": 8891,
      "Ġcotton": 8892,
      "ĠDie": 8893,
      "2009": 8894,
      "Ġadopt": 8895,
      "Before": 8896,
      "Ġecosystems": 8897,
      "Pub": 8898,
      "Ġwat": 8899,
      "Ġfrust": 8900,
      "ĠSon": 8901,
      "Ġlighting": 8902,
      "words": 8903,
      "outheast": 8904,
      "aven": 8905,
      "Ġindirect": 8906,
      "Ġprofile": 8907,
      "ĠHeritage": 8908,
      "bell": 8909,
      "Ġmira": 8910,
      "azz": 8911,
      "Despite": 8912,
      "Scient": 8913,
      "pos": 8914,
      "idal": 8915,
      "ĠFarm": 8916,
      "Ġscope": 8917,
      "ĠCommons": 8918,
      "regular": 8919,
      "Ġwatching": 8920,
      "ĠRelig": 8921,
      "Ġalgae": 8922,
      "Ġsoph": 8923,
      "ĠSaint": 8924,
      "Ġweigh": 8925,
      "Ġethical": 8926,
      "Ġoccupied": 8927,
      "ĠMur": 8928,
      "icking": 8929,
      "Ġpersonnel": 8930,
      "Ġannually": 8931,
      "Ġinvolvement": 8932,
      "ĠStandard": 8933,
      "eutic": 8934,
      "Ġrecall": 8935,
      "Ġengagement": 8936,
      "Ġattractive": 8937,
      "Ġinstances": 8938,
      "2010": 8939,
      "ophical": 8940,
      "Ġcalculated": 8941,
      "ifier": 8942,
      "ĠLog": 8943,
      "Ġshore": 8944,
      "54": 8945,
      "ĠMA": 8946,
      "ĠBuilding": 8947,
      "Ġmanual": 8948,
      "Ġsciences": 8949,
      "Ġbasically": 8950,
      "Ġnutritional": 8951,
      "Ġpilot": 8952,
      "Ġprayer": 8953,
      "Ġpaintings": 8954,
      "iblical": 8955,
      "Ã±": 8956,
      "also": 8957,
      "unar": 8958,
      "ologically": 8959,
      "ĠVan": 8960,
      "Ġspacecraft": 8961,
      "Ġseparation": 8962,
      "ĠTrade": 8963,
      "ĠConfed": 8964,
      "ĠOregon": 8965,
      "Ġexploring": 8966,
      "Ġremoving": 8967,
      "Ġtransferred": 8968,
      "uum": 8969,
      "Ġtact": 8970,
      "Ġcort": 8971,
      "ĠEPA": 8972,
      "ocument": 8973,
      "Ġ48": 8974,
      "Ġcoat": 8975,
      "Ġdifferently": 8976,
      "Ġmagnitude": 8977,
      "Ġliberal": 8978,
      "Mar": 8979,
      "Ġsons": 8980,
      "Ġcodes": 8981,
      "Ġdress": 8982,
      "Ġemerged": 8983,
      "Ġestablishing": 8984,
      "irable": 8985,
      "ĠHistorical": 8986,
      "Ġmembrane": 8987,
      "ivestock": 8988,
      "52": 8989,
      "CP": 8990,
      "mail": 8991,
      "enter": 8992,
      "ptic": 8993,
      "ĠOffic": 8994,
      "Ġteens": 8995,
      "Ġvaried": 8996,
      "Ġvector": 8997,
      "Ġzones": 8998,
      "Ġvillages": 8999,
      "ĠNavy": 9000,
      "UL": 9001,
      "dep": 9002,
      "ĠMess": 9003,
      "this": 9004,
      "ĠVe": 9005,
      "Ġ38": 9006,
      "ĠPakistan": 9007,
      "Ġven": 9008,
      "Ġdisk": 9009,
      "Ġpreserved": 9010,
      "Ġgardens": 9011,
      "Ġtranslated": 9012,
      "Ġpartnership": 9013,
      "Ġsubsid": 9014,
      "erb": 9015,
      "sex": 9016,
      "Ġassets": 9017,
      "Ġinvasive": 9018,
      "Ġmetals": 9019,
      "Ġengines": 9020,
      "Ġdocumented": 9021,
      "Ġprisoners": 9022,
      "ĠNutrition": 9023,
      "ĠField": 9024,
      "aware": 9025,
      "Ġattempted": 9026,
      "Ġirrig": 9027,
      "Ġdrivers": 9028,
      "ĠWikipedia": 9029,
      "ritten": 9030,
      "Ġjoints": 9031,
      "Ġneutral": 9032,
      "Tra": 9033,
      "Ġ(âĢľ": 9034,
      "Ġpeer": 9035,
      "Ġinvasion": 9036,
      "Ġidentical": 9037,
      "Ġdevast": 9038,
      "Ġrecycling": 9039,
      "ĠSecretary": 9040,
      "ĠMove": 9041,
      "uscript": 9042,
      "Ġshorter": 9043,
      "Ġcompost": 9044,
      "Ġunderground": 9045,
      "Ġgrades": 9046,
      "ilson": 9047,
      "Ġpurchased": 9048,
      "Ġacknowled": 9049,
      "Ġshed": 9050,
      "ĠSS": 9051,
      "ĠVitamin": 9052,
      "Ġdipl": 9053,
      "Ġencounter": 9054,
      "ĠBlue": 9055,
      "Ġpenal": 9056,
      "Ġrobot": 9057,
      "ĠMuslims": 9058,
      "Ġprecisely": 9059,
      "Ġbonds": 9060,
      "Ġhier": 9061,
      "ĠMic": 9062,
      "ĠRest": 9063,
      "ĠGall": 9064,
      "Ġfacilitate": 9065,
      "issippi": 9066,
      "Co": 9067,
      "Ġduration": 9068,
      "Ġpersu": 9069,
      "Ġdistinction": 9070,
      "Ġdefault": 9071,
      "ĠDictionary": 9072,
      "rip": 9073,
      "ĠJr": 9074,
      "ĠColon": 9075,
      "Ġvaccines": 9076,
      "Ġsuddenly": 9077,
      "Os": 9078,
      "ĠBal": 9079,
      "Ġcouldn": 9080,
      "Ġending": 9081,
      "Ġlegit": 9082,
      "Ġprosper": 9083,
      "atter": 9084,
      "Ġdairy": 9085,
      "omal": 9086,
      "ĠOnt": 9087,
      "Ġinvention": 9088,
      "Ġadministrative": 9089,
      "Ġmaxim": 9090,
      "Ġlicense": 9091,
      "Ġallergic": 9092,
      "function": 9093,
      "mental": 9094,
      "Ġvag": 9095,
      "2006": 9096,
      "Ġtip": 9097,
      "Ġgate": 9098,
      "ĠCrit": 9099,
      "ĠBang": 9100,
      "Ġoutdoor": 9101,
      "Ġdiffer": 9102,
      "Ġhappiness": 9103,
      "Ġrepresenting": 9104,
      "Ġprivacy": 9105,
      "Ġimagination": 9106,
      "Ġdisplayed": 9107,
      "specific": 9108,
      "ĠHawai": 9109,
      "power": 9110,
      "Ġtap": 9111,
      "Ġhat": 9112,
      "Ġnoun": 9113,
      "imm": 9114,
      "Ġunem": 9115,
      "ysical": 9116,
      "Ġ978": 9117,
      "Ġabsolutely": 9118,
      "havior": 9119,
      "atus": 9120,
      "Ġgast": 9121,
      "Ġdeer": 9122,
      "ushing": 9123,
      "oked": 9124,
      "Ġworker": 9125,
      "ĠPhot": 9126,
      "Ġchoosing": 9127,
      "Ġsending": 9128,
      "Ġdevelops": 9129,
      "Ġrestaur": 9130,
      "Ġrhythm": 9131,
      "Ġchicken": 9132,
      "Ġsale": 9133,
      "ĠCA": 9134,
      "ĠBM": 9135,
      "Ġvig": 9136,
      "Ġatoms": 9137,
      "Ġpossibilities": 9138,
      "Ġbreaking": 9139,
      "ĠKey": 9140,
      "ĠSeveral": 9141,
      "ĠDub": 9142,
      "Ġvaries": 9143,
      "Ġwooden": 9144,
      "ĠIncre": 9145,
      "ĠRNA": 9146,
      "ogens": 9147,
      "Ġbuying": 9148,
      "Ġenthus": 9149,
      "Ġdivine": 9150,
      ".),": 9151,
      "TH": 9152,
      "mentia": 9153,
      "isting": 9154,
      "ĠBureau": 9155,
      "usive": 9156,
      "Ġlecture": 9157,
      "ackson": 9158,
      "Ġgrammar": 9159,
      "Ġwithdraw": 9160,
      "Ġentitled": 9161,
      "Ùİ": 9162,
      "ometer": 9163,
      "Ġbeach": 9164,
      "Ġbell": 9165,
      "Ġgly": 9166,
      "amps": 9167,
      "opl": 9168,
      "anted": 9169,
      "ĠChief": 9170,
      "ieth": 9171,
      "Ġobst": 9172,
      "Ġtransmit": 9173,
      "Ġsheep": 9174,
      "Ġpainted": 9175,
      "ĠImm": 9176,
      "Ġmeaningful": 9177,
[...]
